{
  "version": "1.0",
  "truncation": null,
  "padding": null,
  "added_tokens": [
    {
      "id": 0,
      "content": "<pad>",
      "single_word": false,
      "lstrip": false,
      "rstrip": false,
      "normalized": false,
      "special": true
    },
    {
      "id": 1,
      "content": "<s>",
      "single_word": false,
      "lstrip": false,
      "rstrip": false,
      "normalized": false,
      "special": true
    },
    {
      "id": 2,
      "content": "</s>",
      "single_word": false,
      "lstrip": false,
      "rstrip": false,
      "normalized": false,
      "special": true
    },
    {
      "id": 3,
      "content": "<unk>",
      "single_word": false,
      "lstrip": false,
      "rstrip": false,
      "normalized": false,
      "special": true
    }
  ],
  "normalizer": null,
  "pre_tokenizer": {
    "type": "ByteLevel",
    "add_prefix_space": true,
    "trim_offsets": true,
    "use_regex": true
  },
  "post_processor": {
    "type": "TemplateProcessing",
    "single": [
      {
        "SpecialToken": {
          "id": "<s>",
          "type_id": 0
        }
      },
      {
        "Sequence": {
          "id": "A",
          "type_id": 0
        }
      },
      {
        "SpecialToken": {
          "id": "</s>",
          "type_id": 0
        }
      }
    ],
    "pair": [
      {
        "SpecialToken": {
          "id": "<s>",
          "type_id": 0
        }
      },
      {
        "Sequence": {
          "id": "A",
          "type_id": 0
        }
      },
      {
        "SpecialToken": {
          "id": "</s>",
          "type_id": 0
        }
      },
      {
        "SpecialToken": {
          "id": "<s>",
          "type_id": 0
        }
      },
      {
        "Sequence": {
          "id": "B",
          "type_id": 0
        }
      },
      {
        "SpecialToken": {
          "id": "</s>",
          "type_id": 0
        }
      }
    ],
    "special_tokens": {
      "</s>": {
        "id": "</s>",
        "ids": [
          2
        ],
        "tokens": [
          "</s>"
        ]
      },
      "<s>": {
        "id": "<s>",
        "ids": [
          1
        ],
        "tokens": [
          "<s>"
        ]
      }
    }
  },
  "decoder": {
    "type": "ByteLevel",
    "add_prefix_space": true,
    "trim_offsets": true,
    "use_regex": true
  },
  "model": {
    "type": "BPE",
    "dropout": null,
    "unk_token": null,
    "continuing_subword_prefix": null,
    "end_of_word_suffix": null,
    "fuse_unk": false,
    "byte_fallback": false,
    "ignore_merges": false,
    "vocab": {
      "<pad>": 0,
      "<s>": 1,
      "</s>": 2,
      "<unk>": 3,
      "\"": 4,
      "%": 5,
      "'": 6,
      "(": 7,
      ")": 8,
      ",": 9,
      "-": 10,
      ".": 11,
      "/": 12,
      "0": 13,
      "1": 14,
      "2": 15,
      "3": 16,
      "4": 17,
      "5": 18,
      "6": 19,
      "7": 20,
      "8": 21,
      "9": 22,
      ":": 23,
      ";": 24,
      ">": 25,
      "?": 26,
      "A": 27,
      "B": 28,
      "C": 29,
      "D": 30,
      "E": 31,
      "F": 32,
      "G": 33,
      "H": 34,
      "I": 35,
      "J": 36,
      "K": 37,
      "L": 38,
      "M": 39,
      "N": 40,
      "O": 41,
      "P": 42,
      "R": 43,
      "S": 44,
      "T": 45,
      "U": 46,
      "V": 47,
      "W": 48,
      "X": 49,
      "Y": 50,
      "a": 51,
      "b": 52,
      "c": 53,
      "d": 54,
      "e": 55,
      "f": 56,
      "g": 57,
      "h": 58,
      "i": 59,
      "j": 60,
      "k": 61,
      "l": 62,
      "m": 63,
      "n": 64,
      "o": 65,
      "p": 66,
      "r": 67,
      "s": 68,
      "t": 69,
      "u": 70,
      "v": 71,
      "w": 72,
      "x": 73,
      "y": 74,
      "z": 75,
      "}": 76,
      "°": 77,
      "Â": 78,
      "â": 79,
      "Ċ": 80,
      "Ġ": 81,
      "Ģ": 82,
      "ĵ": 83,
      "an": 84,
      "en": 85,
      "er": 86,
      "Ġp": 87,
      "Ġd": 88,
      "Ġm": 89,
      "si": 90,
      "at": 91,
      "Ġt": 92,
      "Ġs": 93,
      "in": 94,
      "al": 95,
      "ak": 96,
      "ang": 97,
      "Ġb": 98,
      "un": 99,
      "ar": 100,
      "am": 101,
      "ah": 102,
      "ad": 103,
      "Ġpen": 104,
      "em": 105,
      "Ġmen": 106,
      "ap": 107,
      "Ġk": 108,
      "it": 109,
      "kan": 110,
      "Ġl": 111,
      "as": 112,
      "eb": 113,
      "Ġy": 114,
      "Ġyang": 115,
      "ing": 116,
      "ek": 117,
      "Ġdan": 118,
      "el": 119,
      "ti": 120,
      "asi": 121,
      "Ġpeny": 122,
      "Ġdi": 123,
      "uk": 124,
      "or": 125,
      "Ġter": 126,
      "Ġber": 127,
      "ung": 128,
      "Ġpad": 129,
      "ur": 130,
      "Ġtan": 131,
      "et": 132,
      "ai": 133,
      "akit": 134,
      "ro": 135,
      "ĠB": 136,
      "Ġmem": 137,
      "Ġj": 138,
      "gen": 139,
      "Ġpenyakit": 140,
      "is": 141,
      "Ġtanam": 142,
      "um": 143,
      "ik": 144,
      "ya": 145,
      "Ġh": 146,
      "ag": 147,
      "Ġin": 148,
      "eng": 149,
      "us": 150,
      "Ġper": 151,
      "on": 152,
      "ari": 153,
      "Ġse": 154,
      "au": 155,
      "Ġtanaman": 156,
      "ĠP": 157,
      "isi": 158,
      "Ġpada": 159,
      "ol": 160,
      "ul": 161,
      "ih": 162,
      "ĠS": 163,
      "ab": 164,
      "Ġat": 165,
      "ahan": 166,
      "fek": 167,
      "Ġr": 168,
      "apat": 169,
      "ĠA": 170,
      "angan": 171,
      "ut": 172,
      "Ġatau": 173,
      "da": 174,
      "Ġmeng": 175,
      "es": 176,
      "Ġv": 177,
      "Ġdapat": 178,
      "tuk": 179,
      "emb": 180,
      "alam": 181,
      "ian": 182,
      "ara": 183,
      "per": 184,
      "Ġda": 185,
      "Ġ(": 186,
      "Ġg": 187,
      "id": 188,
      "il": 189,
      "ĠAp": 190,
      "Ġun": 191,
      "nya": 192,
      "uh": 193,
      "Ġdaun": 194,
      "akan": 195,
      "ingk": 196,
      "Ġpadi": 197,
      "Ġuntuk": 198,
      "ama": 199,
      "feksi": 200,
      "Ġf": 201,
      "ga": 202,
      "ir": 203,
      "ĠM": 204,
      "ot": 205,
      "ter": 206,
      "aan": 207,
      "Ġc": 208,
      "Ġdalam": 209,
      "Ġser": 210,
      "ebih": 211,
      "Ġmeny": 212,
      "aw": 213,
      "Ġbl": 214,
      "Ġle": 215,
      "agai": 216,
      "Ġke": 217,
      "ant": 218,
      "sis": 219,
      "ebar": 220,
      "cal": 221,
      "dal": 222,
      "ast": 223,
      "gun": 224,
      "adap": 225,
      "amur": 226,
      "Ġmemb": 227,
      "engan": 228,
      "Ġblast": 229,
      "ana": 230,
      "Ġpeng": 231,
      "ebab": 232,
      "Ġlebih": 233,
      "Ġdengan": 234,
      "teri": 235,
      "adi": 236,
      "gendal": 237,
      "ac": 238,
      "Ġmel": 239,
      "af": 240,
      "Ġdari": 241,
      "ep": 242,
      "gi": 243,
      "perti": 244,
      "ĠSp": 245,
      "ukan": 246,
      "ĠApa": 247,
      "ent": 248,
      "jadi": 249,
      "Ġterh": 250,
      "Ġini": 251,
      "cald": 252,
      "ala": 253,
      "apa": 254,
      "Ġjamur": 255,
      "mana": 256,
      "ati": 257,
      "ungro": 258,
      "Ġterhadap": 259,
      "ok": 260,
      "Ġseperti": 261,
      "agaimana": 262,
      "wn": 263,
      "rown": 264,
      "ingkat": 265,
      "Ġleaf": 266,
      "li": 267,
      "Ġscald": 268,
      "etas": 269,
      "arietas": 270,
      "ej": 271,
      "utama": 272,
      "Ġtungro": 273,
      "asil": 274,
      "idak": 275,
      "Ġsp": 276,
      "gendalian": 277,
      "ĠSpot": 278,
      "ain": 279,
      "Ġkon": 280,
      "ĠBrown": 281,
      "isa": 282,
      "ĠBagaimana": 283,
      "Ġinfeksi": 284,
      "ejala": 285,
      "Ġw": 286,
      "cara": 287,
      "ĠK": 288,
      "Ġbisa": 289,
      "amp": 290,
      "eh": 291,
      "ensi": 292,
      "tif": 293,
      "up": 294,
      "Ġpengendalian": 295,
      "Ġsecara": 296,
      "tr": 297,
      "Ġad": 298,
      "Ġtidak": 299,
      "Ġvarietas": 300,
      "ebaran": 301,
      "ebabkan": 302,
      "Ġbi": 303,
      "ud": 304,
      "uj": 305,
      "ikan": 306,
      "om": 307,
      "umb": 308,
      "Ġor": 309,
      "ĠPen": 310,
      "Ġpert": 311,
      "isida": 312,
      "Ġe": 313,
      "Ġpenyebaran": 314,
      "ora": 315,
      "Ġgejala": 316,
      "ato": 317,
      "Ġsa": 318,
      "alu": 319,
      "kemb": 320,
      "alah": 321,
      "ungisida": 322,
      "gunaan": 323,
      "ium": 324,
      "akt": 325,
      "ungan": 326,
      "ĠT": 327,
      "Ġpato": 328,
      "Ġmenjadi": 329,
      "ingga": 330,
      "Ġn": 331,
      "eg": 332,
      "usi": 333,
      "akah": 334,
      "Ġkond": 335,
      "ip": 336,
      "ani": 337,
      "Ġvir": 338,
      "Ġpet": 339,
      "ae": 340,
      "duk": 341,
      "im": 342,
      "ĠI": 343,
      "tik": 344,
      "Ġfungisida": 345,
      "Ġmenyebabkan": 346,
      "sist": 347,
      "cak": 348,
      "ia": 349,
      "atan": 350,
      "Ġting": 351,
      "infeksi": 352,
      "Ġseb": 353,
      "Ġben": 354,
      "amb": 355,
      "Ġkondisi": 356,
      "Ġtinggi": 357,
      "yz": 358,
      "ĠD": 359,
      "Ġgen": 360,
      "itas": 361,
      "oleh": 362,
      "Ġsi": 363,
      "urang": 364,
      "Ġefek": 365,
      "ht": 366,
      "Ġju": 367,
      "yzae": 368,
      "ay": 369,
      "ght": 370,
      "akteri": 371,
      "angat": 372,
      "acteri": 373,
      "Ġoryzae": 374,
      "Ġpatogen": 375,
      "ib": 376,
      "Ġak": 377,
      "Ġoleh": 378,
      "ĠApakah": 379,
      "Ġserangan": 380,
      "ĠR": 381,
      "Ġmeningkat": 382,
      "Ġkel": 383,
      "Ġjuga": 384,
      "ting": 385,
      "Ġpan": 386,
      "Ġker": 387,
      "ikasi": 388,
      "Ġpetani": 389,
      "ko": 390,
      "kin": 391,
      "Ġsel": 392,
      "Ġsangat": 393,
      "Ġberb": 394,
      "ika": 395,
      "Ġseh": 396,
      "uhan": 397,
      "Ġspora": 398,
      "Ġaw": 399,
      "apan": 400,
      "Ġmengh": 401,
      "Ġawal": 402,
      "esi": 403,
      "Ġbag": 404,
      "Ġpenting": 405,
      "tisi": 406,
      "Ġterinfeksi": 407,
      "ind": 408,
      "Ġmenc": 409,
      "Ġhasil": 410,
      "Ġvirus": 411,
      "ja": 412,
      "Ġai": 413,
      "Ġket": 414,
      "ujan": 415,
      "alui": 416,
      "Ġmeningkatkan": 417,
      "Ġair": 418,
      "ena": 419,
      "Ġlingk": 420,
      "Ġlain": 421,
      "ungkin": 422,
      "gunakan": 423,
      "Ġpenggunaan": 424,
      "Ġmelalui": 425,
      "ĠIn": 426,
      "tisida": 427,
      "Ġutama": 428,
      "atu": 429,
      "epat": 430,
      "Ġlingkungan": 431,
      "ase": 432,
      "eber": 433,
      "Ġhujan": 434,
      "ahanan": 435,
      "ĠMeng": 436,
      "ĠC": 437,
      "end": 438,
      "akukan": 439,
      "Ġmenyebar": 440,
      "),": 441,
      "ic": 442,
      "anya": 443,
      "aruh": 444,
      "Ġbercak": 445,
      "aik": 446,
      "Ġadalah": 447,
      "ĠPeny": 448,
      "Ġbenih": 449,
      "ub": 450,
      "arena": 451,
      "Ġmemper": 452,
      "isiko": 453,
      "Ġant": 454,
      "Ġap": 455,
      "Ġpro": 456,
      "Ġmer": 457,
      "Ġstr": 458,
      "ĠPeng": 459,
      "Ġsatu": 460,
      "Ġbakteri": 461,
      "entan": 462,
      "op": 463,
      "tor": 464,
      "Ġek": 465,
      "Ġdit": 466,
      "ĠBli": 467,
      "ĠBacteri": 468,
      "antu": 469,
      "umbuhan": 470,
      "ĠBlight": 471,
      "lus": 472,
      "od": 473,
      "elah": 474,
      "Ġterutama": 475,
      "embapan": 476,
      "Ġpanen": 477,
      "ob": 478,
      "anj": 479,
      "aman": 480,
      "estisida": 481,
      "Ġmembantu": 482,
      "Ġketahanan": 483,
      "ch": 484,
      "ĠJ": 485,
      "engaruh": 486,
      "aktu": 487,
      "urangi": 488,
      "ingan": 489,
      "Ġjika": 490,
      "ulasi": 491,
      "Ġmengurangi": 492,
      "Ġefektif": 493,
      "ekan": 494,
      "pengaruh": 495,
      "ta": 496,
      "entuk": 497,
      "alnya": 498,
      "unc": 499,
      "Ġlap": 500,
      "atif": 501,
      "Ġpertumbuhan": 502,
      "eberapa": 503,
      "and": 504,
      "Ġpestisida": 505,
      "itu": 506,
      "Ġdis": 507,
      "urun": 508,
      "Ġmemil": 509,
      "isalnya": 510,
      "agn": 511,
      "Ġrisiko": 512,
      "Ġserta": 513,
      "sisa": 514,
      "ampak": 515,
      "Ġsaat": 516,
      "Ġsehingga": 517,
      "ĠMengapa": 518,
      "ĠBacterial": 519,
      "uncul": 520,
      "likasi": 521,
      "uan": 522,
      "ual": 523,
      "Ġpol": 524,
      "ektor": 525,
      "Ġperkemb": 526,
      "Ġre": 527,
      "Ġvektor": 528,
      "Ġwaktu": 529,
      "kembang": 530,
      "usim": 531,
      "Ġperkembangan": 532,
      "ed": 533,
      "he": 534,
      "Ġmuncul": 535,
      "Ġtahan": 536,
      "Ġkarena": 537,
      "Ġterjadi": 538,
      "abah": 539,
      "Ġrentan": 540,
      "Ġsaja": 541,
      "ayati": 542,
      "pengaruhi": 543,
      "tasi": 544,
      "ĠN": 545,
      "apor": 546,
      "Ġpenyebab": 547,
      "Ġdil": 548,
      "orium": 549,
      "Ġhayati": 550,
      "Ġfase": 551,
      "muk": 552,
      "ĠH": 553,
      "emp": 554,
      "Ġkes": 555,
      "elum": 556,
      "Ġterb": 557,
      "iki": 558,
      "Ġpermuk": 559,
      "Ġkelembapan": 560,
      "Ġmemiliki": 561,
      "Ġpermukaan": 562,
      "och": 563,
      "Ġum": 564,
      "Ġpr": 565,
      "Ġmusim": 566,
      "aran": 567,
      "Ġkem": 568,
      "onal": 569,
      "Ġlapangan": 570,
      "ig": 571,
      "juk": 572,
      "the": 573,
      "ĠY": 574,
      "arn": 575,
      "Ġmenun": 576,
      "Ġberk": 577,
      "Ġberkembang": 578,
      "Ġmempengaruhi": 579,
      "Ġdilakukan": 580,
      "ali": 581,
      "Ġlahan": 582,
      "tiv": 583,
      "Ġdik": 584,
      "Ġtanah": 585,
      "etelah": 586,
      "lim": 587,
      "Ġbagi": 588,
      "ĠYa": 589,
      "be": 590,
      "Ġpem": 591,
      "Ġmungkin": 592,
      "Ġtingkat": 593,
      "aru": 594,
      "ada": 595,
      "olo": 596,
      "Ġgabah": 597,
      "asilkan": 598,
      "udah": 599,
      "ibat": 600,
      "ĠPenyakit": 601,
      "agnapor": 602,
      "agnaporthe": 603,
      "misalnya": 604,
      "amun": 605,
      "Ġdigunakan": 606,
      "ĠMagnaporthe": 607,
      "Ġresist": 608,
      "jukkan": 609,
      "arna": 610,
      "Ġmenunjukkan": 611,
      "gan": 612,
      "uas": 613,
      "erang": 614,
      "eksi": 615,
      "Ġdib": 616,
      "iklim": 617,
      "awar": 618,
      "awah": 619,
      "dukung": 620,
      "ode": 621,
      "tivitas": 622,
      ").": 623,
      "me": 624,
      "uti": 625,
      "Ġa": 626,
      "Ġiklim": 627,
      "Ġbaik": 628,
      "arah": 629,
      "Ġmenurun": 630,
      "asional": 631,
      "Ġberl": 632,
      "Ġjar": 633,
      "Ġhingga": 634,
      "Ġcara": 635,
      "Ġada": 636,
      "aktor": 637,
      "Ġsebagai": 638,
      "Ġumum": 639,
      "if": 640,
      "pr": 641,
      "ĠG": 642,
      "Ġapa": 643,
      "Ġitu": 644,
      "Ġpemb": 645,
      "Ġsek": 646,
      "aling": 647,
      "Ġmendukung": 648,
      "uran": 649,
      "Ġcepat": 650,
      "umber": 651,
      "igasi": 652,
      "Ġsisa": 653,
      "Ġpaling": 654,
      "Ġbaru": 655,
      "Ġkim": 656,
      "isme": 657,
      "ikro": 658,
      "esar": 659,
      "sistem": 660,
      "ambat": 661,
      "Ġmenghasilkan": 662,
      "Ġantara": 663,
      "ĠNamun": 664,
      "Ġan": 665,
      "Ġsetelah": 666,
      "Ġsumber": 667,
      "angs": 668,
      "Ġmengendal": 669,
      "Ġcok": 670,
      "Ġkep": 671,
      "acil": 672,
      "Ġpertan": 673,
      "duksi": 674,
      "Ġmengendalikan": 675,
      "for": 676,
      "tan": 677,
      "ĠL": 678,
      "Ġmas": 679,
      "alai": 680,
      "angg": 681,
      "Ġkek": 682,
      "alami": 683,
      "egah": 684,
      "Ġakibat": 685,
      "Ġbagian": 686,
      "Ġmencegah": 687,
      "obol": 688,
      "Ġberlebih": 689,
      "fik": 690,
      "Ġir": 691,
      "enis": 692,
      "ereng": 693,
      "Ġmikro": 694,
      "Ġmalai": 695,
      "Ġsawah": 696,
      "angk": 697,
      "orasional": 698,
      "Ġperl": 699,
      "Ġbiorasional": 700,
      "imb": 701,
      "Ġaplikasi": 702,
      "Ġkimia": 703,
      "gn": 704,
      "iya": 705,
      "ida": 706,
      "masi": 707,
      "te": 708,
      "ua": 709,
      "any": 710,
      "anus": 711,
      "Ġmiya": 712,
      "ata": 713,
      "ate": 714,
      "arkan": 715,
      "elol": 716,
      "Ġperan": 717,
      "ĠPer": 718,
      "ulai": 719,
      "uhu": 720,
      "Ġmembentuk": 721,
      "aca": 722,
      "Ġspesi": 723,
      "iputi": 724,
      "Ġsebelum": 725,
      "Ġsign": 726,
      "ĠPenggunaan": 727,
      "beanus": 728,
      "ifikan": 729,
      "angsung": 730,
      "acillus": 731,
      "Ġirigasi": 732,
      "Ġmiyabeanus": 733,
      "Ġsignifikan": 734,
      "aya": 735,
      "etik": 736,
      "warna": 737,
      "Ġid": 738,
      "Ġtet": 739,
      "itro": 740,
      "Ġluas": 741,
      "Ġterl": 742,
      "Ġberwarna": 743,
      "eteksi": 744,
      "ĠSel": 745,
      "Ġmeliputi": 746,
      "liobol": 747,
      "Ġwereng": 748,
      "udida": 749,
      "ĠRT": 750,
      "ĠCoch": 751,
      "Ġpola": 752,
      "Ġresistensi": 753,
      "ategi": 754,
      "itrogen": 755,
      "liobolus": 756,
      "udidaya": 757,
      "ĠCochliobolus": 758,
      "camb": 759,
      "kon": 760,
      "ma": 761,
      "os": 762,
      "sorium": 763,
      "uda": 764,
      "ĠV": 765,
      "Ġalami": 766,
      "Ġdin": 767,
      "Ġmuda": 768,
      "alahan": 769,
      "Ġbudidaya": 770,
      "Ġmend": 771,
      "Ġlangsung": 772,
      "ekn": 773,
      "Ġterus": 774,
      "Ġbert": 775,
      "Ġberat": 776,
      "Ġjenis": 777,
      "esk": 778,
      "essorium": 779,
      "awa": 780,
      "ubahan": 781,
      "anjut": 782,
      "Ġprak": 783,
      "Ġmenurunkan": 784,
      "pressorium": 785,
      "anyak": 786,
      "Ġspesifik": 787,
      "aj": 788,
      "klus": 789,
      "osi": 790,
      "pa": 791,
      "Ġal": 792,
      "Ġuj": 793,
      "Ġsudah": 794,
      "inasi": 795,
      "itar": 796,
      "Ġhari": 797,
      "ĠPada": 798,
      "otensi": 799,
      "Ġmenyerang": 800,
      "entukan": 801,
      "omp": 802,
      "Ġsiklus": 803,
      "Ġefektivitas": 804,
      "Ġsekitar": 805,
      "Ġpertanian": 806,
      "eal": 807,
      "gant": 808,
      "her": 809,
      "uat": 810,
      "uaca": 811,
      "ĠF": 812,
      "Ġpop": 813,
      "Ġdampak": 814,
      "angin": 815,
      "Ġbah": 816,
      "Ġbeberapa": 817,
      "Ġlemb": 818,
      "Ġlok": 819,
      "ebut": 820,
      "elit": 821,
      "Ġters": 822,
      "aikan": 823,
      "Ġmemungkin": 824,
      "Ġhid": 825,
      "Ġperubahan": 826,
      "Ġmenggunakan": 827,
      "Ġgul": 828,
      "idia": 829,
      "adaptasi": 830,
      "upuk": 831,
      "omi": 832,
      "ĠTan": 833,
      "Ġgenetik": 834,
      "Ġsehat": 835,
      "Ġstrategi": 836,
      "ĠJamur": 837,
      "ologi": 838,
      "Ġagen": 839,
      "ĠGejala": 840,
      "elolaan": 841,
      "Ġtetap": 842,
      "ĠSelain": 843,
      "Ġpopulasi": 844,
      "Ġmemungkinkan": 845,
      "ij": 846,
      "ight": 847,
      "lat": 848,
      "osis": 849,
      "wa": 850,
      "Ġro": 851,
      "Ġakan": 852,
      "Ġangin": 853,
      "Ġpel": 854,
      "Ġbacteri": 855,
      "Ġmengen": 856,
      "Ġberd": 857,
      "Ġberas": 858,
      "Ġhar": 859,
      "usakan": 860,
      "Ġfaktor": 861,
      "Ġcuaca": 862,
      "Ġblight": 863,
      "Ġlesi": 864,
      "ĠIni": 865,
      "icu": 866,
      "Ġeks": 867,
      "Ġdisebabkan": 868,
      "ualitas": 869,
      "formasi": 870,
      "Ġberlebihan": 871,
      "Ġdini": 872,
      "Ġpraktik": 873,
      "Ġbacterical": 874,
      "der": 875,
      "eda": 876,
      "iode": 877,
      "lah": 878,
      "ym": 879,
      "âĢ": 880,
      "Ġ1": 881,
      "Ġis": 882,
      "Ġsistem": 883,
      "Ġpupuk": 884,
      "Ġmet": 885,
      "Ġbanyak": 886,
      "amatan": 887,
      "Ġpend": 888,
      "Ġkurang": 889,
      "asanya": 890,
      "Ġdip": 891,
      "ĠBer": 892,
      "Ġinang": 893,
      "onomi": 894,
      "utus": 895,
      "ilay": 896,
      "Ġsering": 897,
      "Ġwilay": 898,
      "Ġorgan": 899,
      "Ġberbeda": 900,
      "Ġdiken": 901,
      "Ġjaringan": 902,
      "Ġperlu": 903,
      "Ġbertahan": 904,
      "Ġhidup": 905,
      "âĢĵ": 906,
      "Ġwilayah": 907,
      "aun": 908,
      "ecamb": 909,
      "tur": 910,
      "xa": 911,
      "yxa": 912,
      "Ġop": 913,
      "entif": 914,
      "ersi": 915,
      "tim": 916,
      "Ġberik": 917,
      "urangan": 918,
      "Ġtanpa": 919,
      "Ġhawar": 920,
      "Ġsed": 921,
      "utnya": 922,
      "Ġgl": 923,
      "Ġleher": 924,
      "Ġkec": 925,
      "epi": 926,
      "entu": 927,
      "okul": 928,
      "ĠDaun": 929,
      "Ġkerusakan": 930,
      "ĠInd": 931,
      "Ġantar": 932,
      "Ġappressorium": 933,
      "Ġekonomi": 934,
      "Ġpolym": 935,
      "Ġcoklat": 936,
      "Ġujung": 937,
      "Ġrotasi": 938,
      "Ġberikutnya": 939,
      "Ġpolymyxa": 940,
      "aen": 941,
      "ef": 942,
      "ran": 943,
      "se": 944,
      "takan": 945,
      "tentu": 946,
      "ĠO": 947,
      "Ġar": 948,
      "Ġtepi": 949,
      "Ġsem": 950,
      "Ġsalah": 951,
      "alium": 952,
      "angkan": 953,
      "ami": 954,
      "Ġkh": 955,
      "Ġkualitas": 956,
      "itasi": 957,
      "eks": 958,
      "tip": 959,
      "Ġtertentu": 960,
      "ĠBakteri": 961,
      "ĠBeberapa": 962,
      "Ġhara": 963,
      "Ġhanya": 964,
      "Ġpers": 965,
      "ĠPaen": 966,
      "abu": 967,
      "Ġrend": 968,
      "ingkali": 969,
      "tern": 970,
      "Ġseringkali": 971,
      "Ġmembuat": 972,
      "Ġpengelolaan": 973,
      "Ġmelakukan": 974,
      "Ġbiasanya": 975,
      "Ġnitrogen": 976,
      "ipun": 977,
      "iptakan": 978,
      "ibacillus": 979,
      "Ġberbagai": 980,
      "Ġmenciptakan": 981,
      "obal": 982,
      "ekanan": 983,
      "Ġideal": 984,
      "eskipun": 985,
      "Ġlokal": 986,
      "ĠPaenibacillus": 987,
      "men": 988,
      "nte": 989,
      "risi": 990,
      "ui": 991,
      "Ġ2": 992,
      "Ġag": 993,
      "Ġud": 994,
      "Ġadaptasi": 995,
      "erah": 996,
      "erus": 997,
      "Ġpangan": 998,
      "Ġtekn": 999,
      "Ġtekanan": 1000,
      "Ġsuhu": 1001,
      "int": 1002,
      "Ġbas": 1003,
      "Ġbahan": 1004,
      "Ġbesar": 1005,
      "ahui": 1006,
      "itor": 1007,
      "eka": 1008,
      "urah": 1009,
      "etahui": 1010,
      "Ġmemicu": 1011,
      "Ġperiode": 1012,
      "ariasi": 1013,
      "utrisi": 1014,
      "Ġkeh": 1015,
      "Ġmembawa": 1016,
      "ĠSpora": 1017,
      "ĠKalium": 1018,
      "ampuan": 1019,
      "upukan": 1020,
      "Ġnutrisi": 1021,
      "ender": 1022,
      "anding": 1023,
      "Ġdibanding": 1024,
      "elitian": 1025,
      "Ġekstr": 1026,
      "Ġglobal": 1027,
      "Ġkecil": 1028,
      "okulum": 1029,
      "Ġudara": 1030,
      "cikan": 1031,
      "doch": 1032,
      "gis": 1033,
      "gangg": 1034,
      "jang": 1035,
      "ses": 1036,
      "ug": 1037,
      "ĠU": 1038,
      "anitasi": 1039,
      "Ġparah": 1040,
      "Ġtind": 1041,
      "Ġst": 1042,
      "Ġkomp": 1043,
      "Ġlama": 1044,
      "Ġlanjut": 1045,
      "Ġberper": 1046,
      "rodoch": 1047,
      "aga": 1048,
      "Ġins": 1049,
      "Ġint": 1050,
      "Ġinformasi": 1051,
      "Ġinokulum": 1052,
      "usak": 1053,
      "onesi": 1054,
      "ihan": 1055,
      "Ġdaerah": 1056,
      "Ġfot": 1057,
      "antau": 1058,
      "ehatan": 1059,
      "ĠTidak": 1060,
      "Ġneg": 1061,
      "ĠDalam": 1062,
      "Ġpanjang": 1063,
      "Ġmenghambat": 1064,
      "icrodoch": 1065,
      "Ġmemperb": 1066,
      "Ġmemperp": 1067,
      "Ġproduksi": 1068,
      "empro": 1069,
      "Ġkesalahan": 1070,
      "ologis": 1071,
      "ĠVarietas": 1072,
      "Ġlembap": 1073,
      "ĠIndonesi": 1074,
      "tipe": 1075,
      "menerus": 1076,
      "ntesis": 1077,
      "Ġbasah": 1078,
      "ganggu": 1079,
      "Ġtindakan": 1080,
      "Ġberperan": 1081,
      "icrodochium": 1082,
      "ĠIndonesia": 1083,
      "BV": 1084,
      "SV": 1085,
      "du": 1086,
      "ea": 1087,
      "eaf": 1088,
      "fa": 1089,
      "sur": 1090,
      "Ġ\"": 1091,
      "anfa": 1092,
      "eringan": 1093,
      "Ġpotensi": 1094,
      "Ġmana": 1095,
      "Ġmekan": 1096,
      "Ġtah": 1097,
      "Ġtepat": 1098,
      "Ġsakit": 1099,
      "aksi": 1100,
      "angga": 1101,
      "Ġya": 1102,
      "uktur": 1103,
      "Ġterk": 1104,
      "Ġjangk": 1105,
      "onitor": 1106,
      "auh": 1107,
      "isiensi": 1108,
      "ulen": 1109,
      "ĠSe": 1110,
      "abil": 1111,
      "Ġatas": 1112,
      "Ġres": 1113,
      "embus": 1114,
      "Ġunsur": 1115,
      "ĠMicrodochium": 1116,
      "Ġcender": 1117,
      "ĠKel": 1118,
      "ĠKarena": 1119,
      "upakan": 1120,
      "Ġaktif": 1121,
      "indari": 1122,
      "Ġlainnya": 1123,
      "Ġmerupakan": 1124,
      "ĠHal": 1125,
      "Ġkesehatan": 1126,
      "Ġkemampuan": 1127,
      "Ġpembentukan": 1128,
      "Ġkekurangan": 1129,
      "osintesis": 1130,
      "Ġtersebut": 1131,
      "Ġgulma": 1132,
      "ijau": 1133,
      "Ġharus": 1134,
      "Ġisol": 1135,
      "Ġmetode": 1136,
      "Ġoptim": 1137,
      "Ġkhas": 1138,
      "Ġrendah": 1139,
      "Ġjangka": 1140,
      "onitoring": 1141,
      "Ġcenderung": 1142,
      "cepat": 1143,
      "ev": 1144,
      "mas": 1145,
      "rasi": 1146,
      "Ġas": 1147,
      "enc": 1148,
      "ens": 1149,
      "Ġmasi": 1150,
      "Ġmis": 1151,
      "Ġmamp": 1152,
      "atah": 1153,
      "Ġtua": 1154,
      "arahan": 1155,
      "emukan": 1156,
      "Ġmenekan": 1157,
      "Ġmenembus": 1158,
      "Ġlab": 1159,
      "asa": 1160,
      "ektisida": 1161,
      "elat": 1162,
      "ukti": 1163,
      "Ġtermas": 1164,
      "aian": 1165,
      "isual": 1166,
      "umlah": 1167,
      "Ġhijau": 1168,
      "agal": 1169,
      "Ġpercikan": 1170,
      "daan": 1171,
      "Ġmengat": 1172,
      "epah": 1173,
      "entang": 1174,
      "Ġpatotipe": 1175,
      "Ġbender": 1176,
      "ĠDi": 1177,
      "Ġselama": 1178,
      "Ġberbentuk": 1179,
      "Ġketer": 1180,
      "Ġmempercepat": 1181,
      "anjang": 1182,
      "ĠJika": 1183,
      "Ġjarak": 1184,
      "Ġanakan": 1185,
      "Ġkeparahan": 1186,
      "Ġpelepah": 1187,
      "Ġmengenai": 1188,
      "ersih": 1189,
      "Ġarea": 1190,
      "Ġdibandingkan": 1191,
      "Ġinsektisida": 1192,
      "Ġfotosintesis": 1193,
      "Ġyaitu": 1194,
      "Ġmampu": 1195,
      "Ġtermasuk": 1196,
      "Ġbendera": 1197,
      "bit": 1198,
      "fat": 1199,
      "get": 1200,
      "oh": 1201,
      "ov": 1202,
      "osistem": 1203,
      "variasi": 1204,
      "Ġep": 1205,
      "erami": 1206,
      "Ġdeteksi": 1207,
      "Ġman": 1208,
      "Ġtelah": 1209,
      "Ġsk": 1210,
      "Ġbat": 1211,
      "Ġbelum": 1212,
      "arget": 1213,
      "Ġkeber": 1214,
      "asarkan": 1215,
      "ekom": 1216,
      "ekatan": 1217,
      "Ġpenyul": 1218,
      "Ġdim": 1219,
      "Ġdiper": 1220,
      "Ġberp": 1221,
      "Ġbers": 1222,
      "Ġbervariasi": 1223,
      "etani": 1224,
      "etatif": 1225,
      "roduksi": 1226,
      "Ġjauh": 1227,
      "Ġjumlah": 1228,
      "isasi": 1229,
      "ons": 1230,
      "ont": 1231,
      "ĠPetani": 1232,
      "ulang": 1233,
      "abaikan": 1234,
      "Ġveg": 1235,
      "Ġvisual": 1236,
      "Ġgel": 1237,
      "iri": 1238,
      "Ġseremp": 1239,
      "Ġmember": 1240,
      "Ġpengamatan": 1241,
      "ĠKes": 1242,
      "trib": 1243,
      "Ġbij": 1244,
      "Ġbiaya": 1245,
      "Ġbibit": 1246,
      "udian": 1247,
      "ĠPengendalian": 1248,
      "Ġkerug": 1249,
      "endasi": 1250,
      "Ġproses": 1251,
      "Ġmerusak": 1252,
      "Ġekosistem": 1253,
      "Ġditemukan": 1254,
      "urunan": 1255,
      "ĠHawar": 1256,
      "Ġkemudian": 1257,
      "Ġberkecamb": 1258,
      "Ġpemupukan": 1259,
      "Ġcokelat": 1260,
      "ĠLeaf": 1261,
      "imbang": 1262,
      "Ġterlalu": 1263,
      "ĠRTBV": 1264,
      "ĠRTSV": 1265,
      "gantungan": 1266,
      "Ġbahwa": 1267,
      "Ġberdampak": 1268,
      "Ġberasal": 1269,
      "entifikasi": 1270,
      "Ġnegara": 1271,
      "anfaat": 1272,
      "Ġtahun": 1273,
      "Ġisolat": 1274,
      "Ġoptimal": 1275,
      "Ġepid": 1276,
      "ekomendasi": 1277,
      "Ġvegetatif": 1278,
      "Ġserempak": 1279,
      "Ġkerugian": 1280,
      "Ġberkecambah": 1281,
      "ba": 1282,
      "cens": 1283,
      "io": 1284,
      "lukan": 1285,
      "ng": 1286,
      "pad": 1287,
      "pons": 1288,
      "tas": 1289,
      "yn": 1290,
      "zol": 1291,
      "ĠE": 1292,
      "Ġend": 1293,
      "anc": 1294,
      "erap": 1295,
      "ering": 1296,
      "erja": 1297,
      "Ġdr": 1298,
      "Ġmulai": 1299,
      "ator": 1300,
      "atorium": 1301,
      "Ġtran": 1302,
      "Ġsen": 1303,
      "Ġsanitasi": 1304,
      "alur": 1305,
      "Ġbul": 1306,
      "emi": 1307,
      "Ġmenj": 1308,
      "Ġkr": 1309,
      "asti": 1310,
      "oratorium": 1311,
      "uruk": 1312,
      "uruh": 1313,
      "ump": 1314,
      "Ġind": 1315,
      "engah": 1316,
      "onas": 1317,
      "ĠPem": 1318,
      "isian": 1319,
      "ularan": 1320,
      "ihat": 1321,
      "aban": 1322,
      "ĠAgen": 1323,
      "angani": 1324,
      "utin": 1325,
      "Ġmenginfeksi": 1326,
      "Ġmengganggu": 1327,
      "escens": 1328,
      "embaban": 1329,
      "ĠMen": 1330,
      "Ġserangga": 1331,
      "awan": 1332,
      "Ġpengisian": 1333,
      "Ġwarna": 1334,
      "ensitas": 1335,
      "omonas": 1336,
      "umbuh": 1337,
      "Ġpertama": 1338,
      "Ġkerentan": 1339,
      "Ġseluruh": 1340,
      "Ġmenghindari": 1341,
      "esidu": 1342,
      "indung": 1343,
      "ice": 1344,
      "aiknya": 1345,
      "ubah": 1346,
      "Ġstres": 1347,
      "Ġstrain": 1348,
      "Ġstruktur": 1349,
      "oder": 1350,
      "edakan": 1351,
      "Ġmunculnya": 1352,
      "bedaan": 1353,
      "kont": 1354,
      "konidia": 1355,
      "Ġalat": 1356,
      "gantung": 1357,
      "Ġtetapi": 1358,
      "ĠBercak": 1359,
      "Ġorganisme": 1360,
      "Ġdikenal": 1361,
      "ternatif": 1362,
      "Ġteknik": 1363,
      "Ġekstrem": 1364,
      "Ġmemperparah": 1365,
      "emprotan": 1366,
      "Ġmasih": 1367,
      "Ġlaboratorium": 1368,
      "Ġgelap": 1369,
      "tribusi": 1370,
      "Ġepidemi": 1371,
      "Ġkerentanan": 1372,
      "gul": 1373,
      "hasil": 1374,
      "leh": 1375,
      "oc": 1376,
      "sp": 1377,
      "tem": 1378,
      "tangan": 1379,
      "Ġ4": 1380,
      "Ġemb": 1381,
      "ansi": 1382,
      "eratif": 1383,
      "Ġdef": 1384,
      "Ġmudah": 1385,
      "Ġmeskipun": 1386,
      "Ġmonitoring": 1387,
      "sifat": 1388,
      "aturan": 1389,
      "Ġti": 1390,
      "Ġtampak": 1391,
      "Ġtumbuh": 1392,
      "Ġsul": 1393,
      "Ġsama": 1394,
      "Ġbagaimana": 1395,
      "aris": 1396,
      "aminasi": 1397,
      "Ġpenc": 1398,
      "Ġpenelitian": 1399,
      "Ġpenurunan": 1400,
      "emaian": 1401,
      "apai": 1402,
      "ekerja": 1403,
      "elanjut": 1404,
      "til": 1405,
      "tiap": 1406,
      "ukup": 1407,
      "ukuran": 1408,
      "Ġterkont": 1409,
      "Ġberm": 1410,
      "Ġberup": 1411,
      "Ġbersifat": 1412,
      "Ġtani": 1413,
      "Ġtantangan": 1414,
      "ĠBacillus": 1415,
      "Ġmemulai": 1416,
      "Ġmemutus": 1417,
      "istem": 1418,
      "yawa": 1419,
      "agi": 1420,
      "Ġinter": 1421,
      "Ġperbedaan": 1422,
      "ong": 1423,
      "ĠSistem": 1424,
      "Ġrel": 1425,
      "Ġringan": 1426,
      "Ġrutin": 1427,
      "utasi": 1428,
      "Ġmengering": 1429,
      "ilangan": 1430,
      "Ġfisi": 1431,
      "Ġcurah": 1432,
      "Ġpengaruh": 1433,
      "ingkatan": 1434,
      "Ġkonidia": 1435,
      "Ġnon": 1436,
      "Ġnama": 1437,
      "usia": 1438,
      "Ġsebaiknya": 1439,
      "ambil": 1440,
      "Ġgenangan": 1441,
      "Ġgeneratif": 1442,
      "Ġkering": 1443,
      "Ġmenyebarkan": 1444,
      "Ġapakah": 1445,
      "Ġproduk": 1446,
      "Ġprote": 1447,
      "agnosis": 1448,
      "Ġterbukti": 1449,
      "ganisme": 1450,
      "Ġmasuk": 1451,
      "Ġmasalah": 1452,
      "anggap": 1453,
      "imbul": 1454,
      "osp": 1455,
      "ajar": 1456,
      "Ġalternatif": 1457,
      "ĠFungisida": 1458,
      "ĠTanaman": 1459,
      "Ġberdasarkan": 1460,
      "utusan": 1461,
      "ĠOleh": 1462,
      "Ġagar": 1463,
      "Ġkehilangan": 1464,
      "Ġintensitas": 1465,
      "Ġmekanisme": 1466,
      "ersihkan": 1467,
      "ontoh": 1468,
      "Ġmemberikan": 1469,
      "ĠKesalahan": 1470,
      "Ġsenyawa": 1471,
      "Ġsulit": 1472,
      "elanjutan": 1473,
      "Ġberupa": 1474,
      "Ġprotein": 1475,
      "00": 1476,
      "30": 1477,
      "CR": 1478,
      "ait": 1479,
      "azol": 1480,
      "ber": 1481,
      "binasi": 1482,
      "fikasi": 1483,
      "ger": 1484,
      "gal": 1485,
      "hyn": 1486,
      "iz": 1487,
      "iaan": 1488,
      "uai": 1489,
      "Â°": 1490,
      "ĠW": 1491,
      "Ġov": 1492,
      "anam": 1493,
      "Ġdosis": 1494,
      "Ġtengah": 1495,
      "Ġsamp": 1496,
      "ina": 1497,
      "inim": 1498,
      "akuan": 1499,
      "Ġbukan": 1500,
      "amati": 1501,
      "ahal": 1502,
      "ahkan": 1503,
      "Ġpenularan": 1504,
      "Ġpeningkatan": 1505,
      "Ġkol": 1506,
      "Ġkand": 1507,
      "itik": 1508,
      "ebas": 1509,
      "elas": 1510,
      "elium": 1511,
      "asis": 1512,
      "Ġdih": 1513,
      "Ġdianggap": 1514,
      "uka": 1515,
      "Ġterd": 1516,
      "Ġberisiko": 1517,
      "unggul": 1518,
      "Ġmemer": 1519,
      "Ġmemantau": 1520,
      "Ġjalur": 1521,
      "Ġjelas": 1522,
      "iksi": 1523,
      "Ġhamp": 1524,
      "agon": 1525,
      "onazol": 1526,
      "Ġses": 1527,
      "ularkan": 1528,
      "ĠSer": 1529,
      "ĠSin": 1530,
      "ĠScald": 1531,
      "ĠStr": 1532,
      "ĠSeberapa": 1533,
      "ĠSetelah": 1534,
      "ĠSuhu": 1535,
      "Ġrapat": 1536,
      "Ġresidu": 1537,
      "utan": 1538,
      "daun": 1539,
      "Ġmengak": 1540,
      "Ġmengun": 1541,
      "Ġmengetahui": 1542,
      "Ġgagal": 1543,
      "ilihan": 1544,
      "ĠAplikasi": 1545,
      "ĠMeskipun": 1546,
      "Ġcukup": 1547,
      "Ġleg": 1548,
      "Ġmelindung": 1549,
      "entara": 1550,
      "oksi": 1551,
      "ainase": 1552,
      "ĠKon": 1553,
      "ombinasi": 1554,
      "Ġpertahanan": 1555,
      "Ġef": 1556,
      "ĠTr": 1557,
      "ĠTer": 1558,
      "Ġpetak": 1559,
      "ĠDari": 1560,
      "Ġsin": 1561,
      "Ġkelembaban": 1562,
      "Ġkerja": 1563,
      "Ġberbasis": 1564,
      "ĠInfeksi": 1565,
      "ĠPenyebaran": 1566,
      "chosp": 1567,
      "ediksi": 1568,
      "ĠNitrogen": 1569,
      "empat": 1570,
      "Ġberkelanjutan": 1571,
      "Ġdiketahui": 1572,
      "Ġmikroba": 1573,
      "Ġperlakuan": 1574,
      "Ġidentifikasi": 1575,
      "Ġmendeteksi": 1576,
      "Ġgula": 1577,
      "Ġpendekatan": 1578,
      "Ġsedangkan": 1579,
      "Ġsementara": 1580,
      "Ġpersemaian": 1581,
      "Ġ20": 1582,
      "Ġrespons": 1583,
      "ĠKelembapan": 1584,
      "Ġmanusia": 1585,
      "Ġberpotensi": 1586,
      "erapkan": 1587,
      "Ġtrans": 1588,
      "Ġembun": 1589,
      "Ġterkontaminasi": 1590,
      "Ġinteraksi": 1591,
      "hynchosp": 1592,
      "agonis": 1593,
      "Ġmelindungi": 1594,
      "hynchosporium": 1595,
      "15": 1596,
      "AM": 1597,
      "MR": 1598,
      "Xant": 1599,
      "bangkan": 1600,
      "fit": 1601,
      "gr": 1602,
      "homonas": 1603,
      "kulasi": 1604,
      "kecamb": 1605,
      "las": 1606,
      "ow": 1607,
      "pun": 1608,
      "rkulasi": 1609,
      "sed": 1610,
      "uar": 1611,
      "zon": 1612,
      "zim": 1613,
      "Ġ6": 1614,
      "Ġukuran": 1615,
      "ĠXant": 1616,
      "anop": 1617,
      "enih": 1618,
      "Ġpeka": 1619,
      "Ġdun": 1620,
      "Ġdua": 1621,
      "Ġmak": 1622,
      "Ġmau": 1623,
      "Ġmil": 1624,
      "Ġmakan": 1625,
      "Ġmir": 1626,
      "Ġmisalnya": 1627,
      "Ġmed": 1628,
      "sia": 1629,
      "atat": 1630,
      "Ġtitik": 1631,
      "Ġsal": 1632,
      "Ġset": 1633,
      "inya": 1634,
      "aks": 1635,
      "akin": 1636,
      "Ġbak": 1637,
      "Ġbawah": 1638,
      "Ġbekerja": 1639,
      "Ġbebas": 1640,
      "arat": 1641,
      "amin": 1642,
      "adaan": 1643,
      "Ġmenangani": 1644,
      "Ġku": 1645,
      "Ġkali": 1646,
      "Ġkenc": 1647,
      "Ġkentang": 1648,
      "Ġkanop": 1649,
      "itis": 1650,
      "Ġluka": 1651,
      "ingatan": 1652,
      "tib": 1653,
      "tilah": 1654,
      "Ġdiamati": 1655,
      "orf": 1656,
      "Ġterc": 1657,
      "ungsi": 1658,
      "urat": 1659,
      "eter": 1660,
      "ĠBenih": 1661,
      "Ġjingga": 1662,
      "Ġjerami": 1663,
      "Ġjajar": 1664,
      "genang": 1665,
      "isan": 1666,
      "umulasi": 1667,
      "Ġhama": 1668,
      "agaman": 1669,
      "Ġperkecamb": 1670,
      "Ġperingatan": 1671,
      "ĠPadi": 1672,
      "olusi": 1673,
      "ulensi": 1674,
      "ĠSil": 1675,
      "Ġras": 1676,
      "ĠAk": 1677,
      "utuh": 1678,
      "Ġmengabaikan": 1679,
      "embangan": 1680,
      "Ġfl": 1681,
      "irus": 1682,
      "otasi": 1683,
      "Ġcoc": 1684,
      "dalikan": 1685,
      "entase": 1686,
      "Ġkons": 1687,
      "ĠKapan": 1688,
      "Ġadanya": 1689,
      "Ġbiologis": 1690,
      "ĠPenelitian": 1691,
      "ĠTekn": 1692,
      "Ġvirulen": 1693,
      "Ġvirulensi": 1694,
      "Ġsirkulasi": 1695,
      "Ġakar": 1696,
      "Ġakurat": 1697,
      "Ġakumulasi": 1698,
      "ĠRF": 1699,
      "ĠRhynchosporium": 1700,
      "inding": 1701,
      "Ġmencapai": 1702,
      "ĠContoh": 1703,
      "Ġmereka": 1704,
      "ĠPengamatan": 1705,
      "Ġditularkan": 1706,
      "ĠBacterical": 1707,
      "Ġlapisan": 1708,
      "Ġterbaik": 1709,
      "Ġumur": 1710,
      "Ġpertanaman": 1711,
      "tanur": 1712,
      "Ġmasa": 1713,
      "Ġkekeringan": 1714,
      "Ġsebelumnya": 1715,
      "Ġterlihat": 1716,
      "ĠVirus": 1717,
      "ompok": 1718,
      "Ġefektivitasnya": 1719,
      "ĠFaktor": 1720,
      "Ġbahkan": 1721,
      "Ġterserang": 1722,
      "Ġorganik": 1723,
      "Ġdikendalikan": 1724,
      "ĠOr": 1725,
      "eksual": 1726,
      "Ġpersentase": 1727,
      "Ġstabil": 1728,
      "Ġmemperbesar": 1729,
      "ĠSecara": 1730,
      "Ġmiselium": 1731,
      "Ġmengatasi": 1732,
      "Ġketergantungan": 1733,
      "Ġskala": 1734,
      "Ġpenyuluhan": 1735,
      "Ġdimulai": 1736,
      "Ġbiji": 1737,
      "iotik": 1738,
      "padu": 1739,
      "Ġdrainase": 1740,
      "Ġdefisiensi": 1741,
      "Ġtiga": 1742,
      "Ġfisiologis": 1743,
      "Ġkandungan": 1744,
      "Ġmemerlukan": 1745,
      "Ġsesuai": 1746,
      "ĠSintanur": 1747,
      "Ġlegow": 1748,
      "oksin": 1749,
      "AMP": 1750,
      "sediaan": 1751,
      "zonasi": 1752,
      "ĠXanthomonas": 1753,
      "Ġdunia": 1754,
      "Ġmaupun": 1755,
      "Ġmirip": 1756,
      "Ġmedia": 1757,
      "Ġkencang": 1758,
      "Ġkanopi": 1759,
      "Ġperkecambahan": 1760,
      "utuhkan": 1761,
      "Ġcocok": 1762,
      "Ġlegowo": 1763,
      "bin": 1764,
      "ci": 1765,
      "di": 1766,
      "faktor": 1767,
      "hati": 1768,
      "jad": 1769,
      "mbangkan": 1770,
      "ne": 1771,
      "nama": 1772,
      "rigasi": 1773,
      "rekomendasi": 1774,
      "target": 1775,
      "ugi": 1776,
      "versi": 1777,
      "was": 1778,
      "zeb": 1779,
      "Ġ7": 1780,
      "Ġamb": 1781,
      "Ġaman": 1782,
      "Ġabu": 1783,
      "Ġzonasi": 1784,
      "erapan": 1785,
      "ĠpH": 1786,
      "Ġdinding": 1787,
      "Ġmoder": 1788,
      "Ġmorf": 1789,
      "atus": 1790,
      "alan": 1791,
      "alisi": 1792,
      "Ġbus": 1793,
      "unuh": 1794,
      "arb": 1795,
      "arak": 1796,
      "ahaya": 1797,
      "adatan": 1798,
      "emari": 1799,
      "emahan": 1800,
      "aplikasi": 1801,
      "aparan": 1802,
      "Ġken": 1803,
      "Ġkas": 1804,
      "Ġkemb": 1805,
      "Ġleb": 1806,
      "Ġluar": 1807,
      "asar": 1808,
      "ekro": 1809,
      "ektr": 1810,
      "ekay": 1811,
      "tis": 1812,
      "Ġpenyemprotan": 1813,
      "Ġdikembang": 1814,
      "Ġdirekomendasi": 1815,
      "Ġdiaplikasi": 1816,
      "organisme": 1817,
      "Ġtergantung": 1818,
      "Ġtergenang": 1819,
      "Ġberada": 1820,
      "Ġberadaptasi": 1821,
      "ungaan": 1822,
      "Ġpadahal": 1823,
      "urkan": 1824,
      "ail": 1825,
      "Ġmemanjang": 1826,
      "genik": 1827,
      "ikit": 1828,
      "iknya": 1829,
      "ikator": 1830,
      "aria": 1831,
      "Ġsetiap": 1832,
      "ĠPr": 1833,
      "ĠPCR": 1834,
      "oler": 1835,
      "ula": 1836,
      "Ġrekomendasi": 1837,
      "Ġrump": 1838,
      "ĠAsia": 1839,
      "Ġdaur": 1840,
      "Ġgand": 1841,
      "ĠAppressorium": 1842,
      "iran": 1843,
      "ĠcAMP": 1844,
      "Ġkecamb": 1845,
      "Ġmembedakan": 1846,
      "Ġmembunuh": 1847,
      "Ġpengaturan": 1848,
      "Ġpengembangan": 1849,
      "Ġmeluas": 1850,
      "Ġmelawan": 1851,
      "pertimbangkan": 1852,
      "Ġkont": 1853,
      "Ġkonid": 1854,
      "Ġwabah": 1855,
      "ampakan": 1856,
      "Ġbiak": 1857,
      "ujian": 1858,
      "ĠTungro": 1859,
      "Ġnekro": 1860,
      "egahan": 1861,
      "egrasi": 1862,
      "usif": 1863,
      "usial": 1864,
      "Ġkondusif": 1865,
      "dukasi": 1866,
      "ĠIrigasi": 1867,
      "tikula": 1868,
      "sistensi": 1869,
      "Ġbentuk": 1870,
      "ĠRotasi": 1871,
      "Ġkelompok": 1872,
      "Ġmencemari": 1873,
      "ĠInformasi": 1874,
      "ich": 1875,
      "ĠPenyebab": 1876,
      "Ġmemperl": 1877,
      "Ġantagonis": 1878,
      "Ġditand": 1879,
      "Ġdistribusi": 1880,
      "aporkan": 1881,
      "Ġterbentuk": 1882,
      "Ġterbaru": 1883,
      "Ġterbawa": 1884,
      "Ġberkurang": 1885,
      "Ġresistansi": 1886,
      "Ġav": 1887,
      "Ġumumnya": 1888,
      "Ġpembungaan": 1889,
      "Ġantib": 1890,
      "Ġkepada": 1891,
      "Ġkeputusan": 1892,
      "Ġmikroorganisme": 1893,
      "Ġmendarat": 1894,
      "eski": 1895,
      "Ġgenetika": 1896,
      "Ġ10": 1897,
      "Ġistilah": 1898,
      "Ġsedikit": 1899,
      "seperti": 1900,
      "Ġteknologi": 1901,
      "Ġekstrak": 1902,
      "antauan": 1903,
      "Ġterkait": 1904,
      "abilitas": 1905,
      "eventif": 1906,
      "Ġmengatur": 1907,
      "Ġketersediaan": 1908,
      "Ġbatang": 1909,
      "Ġbatas": 1910,
      "Ġbersama": 1911,
      "Ġbulir": 1912,
      "Ġkrusial": 1913,
      "Ġpencegahan": 1914,
      "Ġrelatif": 1915,
      "Ġoval": 1916,
      "inimal": 1917,
      "Ġkolon": 1918,
      "Ġdihasilkan": 1919,
      "Ġhamparan": 1920,
      "ĠSerangan": 1921,
      "Ġmenguning": 1922,
      "ombinasikan": 1923,
      "Ġmakanan": 1924,
      "Ġsetempat": 1925,
      "Ġkutikula": 1926,
      "versifikasi": 1927,
      "Ġambang": 1928,
      "Ġmodern": 1929,
      "Ġmorfologi": 1930,
      "alisis": 1931,
      "Ġbusuk": 1932,
      "Ġkasus": 1933,
      "Ġkembali": 1934,
      "Ġlebat": 1935,
      "ekayasa": 1936,
      "Ġdikembangkan": 1937,
      "Ġdirekomendasikan": 1938,
      "Ġdiaplikasikan": 1939,
      "Ġgandum": 1940,
      "Ġkecambah": 1941,
      "Ġditandai": 1942,
      ".,": 1943,
      "28": 1944,
      "50": 1945,
      "RT": 1946,
      "caman": 1947,
      "dak": 1948,
      "dap": 1949,
      "dag": 1950,
      "disi": 1951,
      "eae": 1952,
      "gagal": 1953,
      "garis": 1954,
      "hi": 1955,
      "han": 1956,
      "hir": 1957,
      "hawar": 1958,
      "iar": 1959,
      "jerami": 1960,
      "kem": 1961,
      "le": 1962,
      "lad": 1963,
      "lor": 1964,
      "lok": 1965,
      "mi": 1966,
      "mum": 1967,
      "mulasi": 1968,
      "ntuk": 1969,
      "ofit": 1970,
      "ra": 1971,
      "uatu": 1972,
      "uaikan": 1973,
      "wat": 1974,
      "yal": 1975,
      "Ġ3": 1976,
      "Ġus": 1977,
      "Ġac": 1978,
      "Ġup": 1979,
      "Ġikan": 1980,
      "Ġarah": 1981,
      "anaman": 1982,
      "enda": 1983,
      "enuh": 1984,
      "erensi": 1985,
      "erint": 1986,
      "Ġpun": 1987,
      "Ġpok": 1988,
      "Ġdat": 1989,
      "Ġdata": 1990,
      "Ġmata": 1991,
      "Ġmutasi": 1992,
      "atas": 1993,
      "atur": 1994,
      "atihan": 1995,
      "Ġtub": 1996,
      "Ġtentang": 1997,
      "Ġtarget": 1998,
      "Ġtimbul": 1999,
      "Ġtunggul": 2000,
      "Ġtoler": 2001,
      "Ġsub": 2002,
      "Ġsuatu": 2003,
      "aliknya": 2004,
      "Ġbel": 2005,
      "Ġbrown": 2006,
      "Ġburuk": 2007,
      "unak": 2008,
      "unya": 2009,
      "amah": 2010,
      "aha": 2011,
      "ahami": 2012,
      "adang": 2013,
      "Ġmenentukan": 2014,
      "Ġmenimbul": 2015,
      "Ġkeb": 2016,
      "Ġkom": 2017,
      "Ġkebut": 2018,
      "iter": 2019,
      "Ġlat": 2020,
      "Ġlalu": 2021,
      "Ġlambat": 2022,
      "Ġlaj": 2023,
      "Ġlagi": 2024,
      "Ġlunak": 2025,
      "Ġliter": 2026,
      "inggal": 2027,
      "ekat": 2028,
      "tidak": 2029,
      "Ġdic": 2030,
      "Ġdipengaruhi": 2031,
      "Ġdiagnosis": 2032,
      "ord": 2033,
      "orulasi": 2034,
      "orong": 2035,
      "Ġterang": 2036,
      "Ġberubah": 2037,
      "Ġbergantung": 2038,
      "Ġberhasil": 2039,
      "Ġbernama": 2040,
      "Ġmemanfaat": 2041,
      "Ġjam": 2042,
      "Ġjadi": 2043,
      "umah": 2044,
      "Ġhub": 2045,
      "agian": 2046,
      "Ġinti": 2047,
      "engk": 2048,
      "usus": 2049,
      "usuh": 2050,
      "ustr": 2051,
      "Ġperger": 2052,
      "onen": 2053,
      "ontribusi": 2054,
      "ĠPemb": 2055,
      "ĠPestisida": 2056,
      "ola": 2057,
      "ĠSem": 2058,
      "ĠSeb": 2059,
      "ĠSanitasi": 2060,
      "abuan": 2061,
      "fektivitas": 2062,
      "Ġrib": 2063,
      "Ġrekayasa": 2064,
      "Ġramah": 2065,
      "Ġrumah": 2066,
      "ĠAn": 2067,
      "ĠAs": 2068,
      "Ġmengalami": 2069,
      "esuaikan": 2070,
      "embaga": 2071,
      "Ġdaya": 2072,
      "idikan": 2073,
      "ila": 2074,
      "Ġfungsi": 2075,
      "irulen": 2076,
      "ĠMel": 2077,
      "ĠMangan": 2078,
      "ĠMonitoring": 2079,
      "ebihan": 2080,
      "Ġlewat": 2081,
      "Ġkeabu": 2082,
      "Ġkegagal": 2083,
      "adapi": 2084,
      "Ġpengh": 2085,
      "epan": 2086,
      "Ġterhambat": 2087,
      "Ġspot": 2088,
      "Ġsporulasi": 2089,
      "ĠKep": 2090,
      "ĠKeter": 2091,
      "ensif": 2092,
      "Ġbio": 2093,
      "ĠPend": 2094,
      "Ġev": 2095,
      "Ġedukasi": 2096,
      "Ġnamun": 2097,
      "ĠIk": 2098,
      "ĠDeteksi": 2099,
      "Ġaktivitas": 2100,
      "ĠRice": 2101,
      "Ġkelemahan": 2102,
      "Ġkeragaman": 2103,
      "Ġseleksi": 2104,
      "Ġmenghadapi": 2105,
      "Ġpentingnya": 2106,
      "indahkan": 2107,
      "ungkinan": 2108,
      "ĠMenggunakan": 2109,
      "ĠMengabaikan": 2110,
      "Ġmerata": 2111,
      "Ġmerugi": 2112,
      "ĠPengelolaan": 2113,
      "Ġditanam": 2114,
      "ĠJarak": 2115,
      "Ġmemilih": 2116,
      "Ġprediksi": 2117,
      "Ġpreventif": 2118,
      "Ġkemungkinan": 2119,
      "Ġberkontribusi": 2120,
      "Ġdikombinasikan": 2121,
      "Ġpemantauan": 2122,
      "Ġpemerint": 2123,
      "ibatnya": 2124,
      "Ġresisten": 2125,
      "Ġdibutuhkan": 2126,
      "Ġancaman": 2127,
      "ĠLesi": 2128,
      "imbangan": 2129,
      "elola": 2130,
      "Ġmendorong": 2131,
      "osial": 2132,
      "Ġuji": 2133,
      "eliti": 2134,
      "ĠTanam": 2135,
      "ĠTanah": 2136,
      "ijakan": 2137,
      "Ġpelatihan": 2138,
      "Ġmengenali": 2139,
      "Ġharga": 2140,
      "Ġ19": 2141,
      "Ġkurangnya": 2142,
      "Ġsedang": 2143,
      "eferensi": 2144,
      "Ġsemakin": 2145,
      "ĠUntuk": 2146,
      "Ġstatus": 2147,
      "Ġkomponen": 2148,
      "Ġmemperburuk": 2149,
      "Ġmemperpanjang": 2150,
      "emprot": 2151,
      "Ġmekanis": 2152,
      "Ġaseksual": 2153,
      "atahari": 2154,
      "Ġkeberadaan": 2155,
      "Ġpenyuluh": 2156,
      "ĠEfektivitas": 2157,
      "Ġendem": 2158,
      "Ġendofit": 2159,
      "Ġmenjaga": 2160,
      "Ġkritis": 2161,
      "astikan": 2162,
      "Ġindikator": 2163,
      "ĠPemupukan": 2164,
      "ĠMeny": 2165,
      "oderma": 2166,
      "tilis": 2167,
      "Ġbermanfaat": 2168,
      "ambilan": 2169,
      "bercak": 2170,
      "Ġsampel": 2171,
      "ĠKondisi": 2172,
      "Ġefisiensi": 2173,
      "ĠTrich": 2174,
      "Ġmaka": 2175,
      "Ġsalin": 2176,
      "Ġbakter": 2177,
      "ĠAkibatnya": 2178,
      "ĠContohnya": 2179,
      "hatikan": 2180,
      "Ġkenampakan": 2181,
      "Ġmemperlambat": 2182,
      "Ġavirulen": 2183,
      "dagangan": 2184,
      "Ġusaha": 2185,
      "Ġupaya": 2186,
      "Ġpuncak": 2187,
      "Ġpokok": 2188,
      "Ġdataran": 2189,
      "Ġtubuh": 2190,
      "Ġsubtilis": 2191,
      "Ġmenimbulkan": 2192,
      "Ġkebutuhan": 2193,
      "Ġlaju": 2194,
      "inggalkan": 2195,
      "Ġmemanfaatkan": 2196,
      "Ġhubungan": 2197,
      "Ġpergerakan": 2198,
      "Ġribuan": 2199,
      "Ġkegagalan": 2200,
      "ĠKetergantungan": 2201,
      "Ġmerugikan": 2202,
      "Ġpemerintah": 2203,
      "ĠTrichoderma": 2204,
      "%)": 2205,
      "55": 2206,
      "BI": 2207,
      "DA": 2208,
      "Nep": 2209,
      "Si": 2210,
      "cat": 2211,
      "dil": 2212,
      "densi": 2213,
      "esis": 2214,
      "fir": 2215,
      "fakt": 2216,
      "gor": 2217,
      "ha": 2218,
      "hot": 2219,
      "iv": 2220,
      "iper": 2221,
      "iaw": 2222,
      "ical": 2223,
      "janya": 2224,
      "kh": 2225,
      "lasi": 2226,
      "let": 2227,
      "lalu": 2228,
      "leks": 2229,
      "mis": 2230,
      "mata": 2231,
      "ogr": 2232,
      "pek": 2233,
      "pis": 2234,
      "pik": 2235,
      "pari": 2236,
      "produksi": 2237,
      "ris": 2238,
      "rip": 2239,
      "th": 2240,
      "tek": 2241,
      "tai": 2242,
      "uor": 2243,
      "uatan": 2244,
      "uci": 2245,
      "ves": 2246,
      "wal": 2247,
      "zok": 2248,
      "Ġ'": 2249,
      "Ġ8": 2250,
      "Ġ9": 2251,
      "Ġab": 2252,
      "Ġalam": 2253,
      "Ġadap": 2254,
      "Ġia": 2255,
      "Ġanj": 2256,
      "Ġ30": 2257,
      "enti": 2258,
      "era": 2259,
      "erb": 2260,
      "eri": 2261,
      "ertai": 2262,
      "Ġpv": 2263,
      "Ġpatah": 2264,
      "Ġpagi": 2265,
      "Ġplas": 2266,
      "Ġder": 2267,
      "Ġdet": 2268,
      "Ġdepan": 2269,
      "Ġmul": 2270,
      "Ġmalam": 2271,
      "Ġmati": 2272,
      "Ġmurah": 2273,
      "Ġmaksi": 2274,
      "Ġmeski": 2275,
      "Ġmusuh": 2276,
      "Ġmatahari": 2277,
      "sip": 2278,
      "sihan": 2279,
      "sidensi": 2280,
      "atian": 2281,
      "Ġteb": 2282,
      "Ġton": 2283,
      "Ġtot": 2284,
      "Ġtamb": 2285,
      "Ġtulang": 2286,
      "Ġtoksin": 2287,
      "Ġtembaga": 2288,
      "Ġsar": 2289,
      "Ġsuk": 2290,
      "Ġster": 2291,
      "Ġsosial": 2292,
      "intik": 2293,
      "insip": 2294,
      "alir": 2295,
      "akar": 2296,
      "Ġbukti": 2297,
      "Ġbila": 2298,
      "unitas": 2299,
      "under": 2300,
      "arant": 2301,
      "aringan": 2302,
      "amat": 2303,
      "ahaman": 2304,
      "adaran": 2305,
      "Ġpenet": 2306,
      "Ġpenuh": 2307,
      "Ġpenerapan": 2308,
      "emen": 2309,
      "emah": 2310,
      "emuan": 2311,
      "Ġmenemp": 2312,
      "Ġmenerapkan": 2313,
      "Ġkin": 2314,
      "Ġkaca": 2315,
      "Ġkarant": 2316,
      "itaman": 2317,
      "itra": 2318,
      "Ġlemah": 2319,
      "ebalan": 2320,
      "ingg": 2321,
      "elang": 2322,
      "elur": 2323,
      "tix": 2324,
      "Ġdimana": 2325,
      "Ġdiuj": 2326,
      "Ġdianj": 2327,
      "Ġdiulang": 2328,
      "Ġdiimbang": 2329,
      "Ġdiwas": 2330,
      "Ġdipertimbangkan": 2331,
      "ukonazol": 2332,
      "ormulasi": 2333,
      "Ġterp": 2334,
      "Ġterpadu": 2335,
      "Ġterjad": 2336,
      "Ġberf": 2337,
      "Ġberulang": 2338,
      "Ġpadat": 2339,
      "urfakt": 2340,
      "Ġtanda": 2341,
      "ettix": 2342,
      "robin": 2343,
      "ĠBisa": 2344,
      "Ġmempr": 2345,
      "Ġmemindahkan": 2346,
      "Ġmemastikan": 2347,
      "Ġmemproduksi": 2348,
      "Ġjustr": 2349,
      "isap": 2350,
      "ikon": 2351,
      "ikuti": 2352,
      "Ġhangat": 2353,
      "agam": 2354,
      "Ġintern": 2355,
      "Ġinsidensi": 2356,
      "Ġperdagangan": 2357,
      "Ġsej": 2358,
      "Ġseimbang": 2359,
      "ĠPi": 2360,
      "ĠPro": 2361,
      "ĠPato": 2362,
      "ĠPse": 2363,
      "ĠPola": 2364,
      "isien": 2365,
      "olasi": 2366,
      "olahan": 2367,
      "olaris": 2368,
      "ularia": 2369,
      "ĠSt": 2370,
      "ĠSalah": 2371,
      "abung": 2372,
      "abol": 2373,
      "abut": 2374,
      "Ġrep": 2375,
      "Ġrusak": 2376,
      "Ġrawan": 2377,
      "apatan": 2378,
      "ĠAl": 2379,
      "ĠAir": 2380,
      "ĠAng": 2381,
      "ĠAdap": 2382,
      "Ġmengk": 2383,
      "Ġmengan": 2384,
      "Ġmengin": 2385,
      "Ġmenganc": 2386,
      "Ġmengubah": 2387,
      "Ġmengambil": 2388,
      "Ġmengelola": 2389,
      "Ġmengalir": 2390,
      "Ġvariasi": 2391,
      "Ġgil": 2392,
      "Ġgamb": 2393,
      "Ġgiz": 2394,
      "ili": 2395,
      "ilai": 2396,
      "ilitas": 2397,
      "Ġformulasi": 2398,
      "ira": 2399,
      "iru": 2400,
      "ĠMA": 2401,
      "ĠMer": 2402,
      "ĠMemb": 2403,
      "ĠMisalnya": 2404,
      "ĠMusim": 2405,
      "ĠMikro": 2406,
      "terutama": 2407,
      "Ġcer": 2408,
      "Ġciri": 2409,
      "Ġcitra": 2410,
      "Ġsereal": 2411,
      "Ġked": 2412,
      "Ġketik": 2413,
      "Ġketidak": 2414,
      "Ġmembran": 2415,
      "Ġmembersihkan": 2416,
      "Ġpengurangan": 2417,
      "Ġpengeringan": 2418,
      "Ġpengujian": 2419,
      "Ġpengambilan": 2420,
      "Ġpengolahan": 2421,
      "Ġmelihat": 2422,
      "epang": 2423,
      "epanj": 2424,
      "atia": 2425,
      "okus": 2426,
      "lifor": 2427,
      "Ġspektr": 2428,
      "ainkan": 2429,
      "ĠKetik": 2430,
      "tifkan": 2431,
      "udomonas": 2432,
      "aluasi": 2433,
      "ĠTepat": 2434,
      "ĠTumbuhan": 2435,
      "Ġmenjadikan": 2436,
      "egr": 2437,
      "ipolaris": 2438,
      "imp": 2439,
      "sistrobin": 2440,
      "ĠDengan": 2441,
      "ĠDampak": 2442,
      "Ġgenom": 2443,
      "Ġsim": 2444,
      "Ġjual": 2445,
      "Ġpatogenesis": 2446,
      "Ġakhir": 2447,
      "ĠRe": 2448,
      "ĠRisiko": 2449,
      "Ġkelebihan": 2450,
      "Ġkeliru": 2451,
      "Ġkerdil": 2452,
      "Ġkerjanya": 2453,
      "kozeb": 2454,
      "koord": 2455,
      "Ġselalu": 2456,
      "Ġberbahan": 2457,
      "Ġberbahaya": 2458,
      "indahan": 2459,
      "Ġmencatat": 2460,
      "ĠInpari": 2461,
      "ĠCurah": 2462,
      "aiki": 2463,
      "ĠPenyemprotan": 2464,
      "uburan": 2465,
      "Ġpropik": 2466,
      "ĠPengganggu": 2467,
      "ĠPengaturan": 2468,
      "ĠPengamat": 2469,
      "Ġditangani": 2470,
      "Ġditerapkan": 2471,
      "Ġditeliti": 2472,
      "ĠJepang": 2473,
      "Ġdisebut": 2474,
      "Ġdisertai": 2475,
      "heat": 2476,
      "Ġdilaporkan": 2477,
      "ĠHama": 2478,
      "Ġkesadaran": 2479,
      "Ġkesuburan": 2480,
      "Ġterbatas": 2481,
      "Ġpred": 2482,
      "Ġkemer": 2483,
      "igrasi": 2484,
      "Ġmenunda": 2485,
      "Ġberkala": 2486,
      "Ġberkepanj": 2487,
      "Ġdikira": 2488,
      "Ġpemul": 2489,
      "Ġpemilihan": 2490,
      "Ġpemahaman": 2491,
      "ibatkan": 2492,
      "Ġdibedakan": 2493,
      "Ġdibersihkan": 2494,
      "Ġazok": 2495,
      "Ġsekunder": 2496,
      "Ġkimiaw": 2497,
      "Ġanalisis": 2498,
      "Ġkepadatan": 2499,
      "acillifor": 2500,
      "Ġkekebalan": 2501,
      "obolin": 2502,
      "angkah": 2503,
      "angkap": 2504,
      "ĠPeran": 2505,
      "ĠPeriode": 2506,
      "osisi": 2507,
      "Ġsekitarnya": 2508,
      "herical": 2509,
      "Ġdampaknya": 2510,
      "Ġlembab": 2511,
      "Ġlembaga": 2512,
      "Ġlokasi": 2513,
      "ĠTanpa": 2514,
      "Ġsistemik": 2515,
      "Ġmetabol": 2516,
      "Ġpendidikan": 2517,
      "Ġpendapatan": 2518,
      "Ġdiproduksi": 2519,
      "Ġophi": 2520,
      "seed": 2521,
      "Ġkhusus": 2522,
      "Ġagro": 2523,
      "Ġkehitaman": 2524,
      "ugas": 2525,
      "Ġkompleks": 2526,
      "Ġintegrasi": 2527,
      "Ġnegatif": 2528,
      "Ġmemperbaiki": 2529,
      "Ġterkadang": 2530,
      "ĠSetiap": 2531,
      "Ġresmi": 2532,
      "evan": 2533,
      "Ġasam": 2534,
      "Ġmiskin": 2535,
      "ĠDiversifikasi": 2536,
      "ersihan": 2537,
      "Ġmankozeb": 2538,
      "Ġkebersihan": 2539,
      "Ġdiperoleh": 2540,
      "Ġdiperlukan": 2541,
      "Ġberselang": 2542,
      "Ġbijaks": 2543,
      "padai": 2544,
      "Ġdrasti": 2545,
      "Ġbulat": 2546,
      "Ġmenjamin": 2547,
      "ĠPemilihan": 2548,
      "spora": 2549,
      "Ġbermutasi": 2550,
      "Ġrelevan": 2551,
      "ĠWaktu": 2552,
      "ĠStrategi": 2553,
      "Ġefisien": 2554,
      "ĠTerpadu": 2555,
      "Ġsinar": 2556,
      "Ġsinyal": 2557,
      "Ġtransgenik": 2558,
      "Ġmiliar": 2559,
      "Ġmillet": 2560,
      "ĠSilika": 2561,
      "ĠSilikon": 2562,
      "Ġfluor": 2563,
      "Ġkonsum": 2564,
      "ĠTeknik": 2565,
      "ĠTeknologi": 2566,
      "ĠOrganisme": 2567,
      "Ġ70": 2568,
      "arbenda": 2569,
      "Ġrumput": 2570,
      "Ġkontak": 2571,
      "Ġkonidium": 2572,
      "Ġnekrotik": 2573,
      "Ġantibiotik": 2574,
      "Ġkoloni": 2575,
      "lokasi": 2576,
      "Ġtoleransi": 2577,
      "Ġkomunitas": 2578,
      "Ġfungsional": 2579,
      "ĠPendekatan": 2580,
      "Ġevolusi": 2581,
      "ĠIklim": 2582,
      "Ġsalinitas": 2583,
      "Ġbakterisida": 2584,
      "Nephot": 2585,
      "firmasi": 2586,
      "Ġabiotik": 2587,
      "Ġadaptif": 2588,
      "Ġanjuran": 2589,
      "Ġdetail": 2590,
      "Ġmaksimum": 2591,
      "Ġtebukonazol": 2592,
      "Ġtotal": 2593,
      "Ġtambahan": 2594,
      "Ġsarana": 2595,
      "Ġpenetrasi": 2596,
      "Ġmenempel": 2597,
      "Ġkarantina": 2598,
      "Ġdiuji": 2599,
      "Ġdianjurkan": 2600,
      "Ġdiimbangi": 2601,
      "Ġdiwaspadai": 2602,
      "urfaktan": 2603,
      "Ġmemprediksi": 2604,
      "Ġjustru": 2605,
      "Ġinternasional": 2606,
      "ĠPatogen": 2607,
      "ĠPseudomonas": 2608,
      "ĠAngin": 2609,
      "ĠAdaptif": 2610,
      "Ġmengancam": 2611,
      "Ġgambar": 2612,
      "Ġgizi": 2613,
      "Ġserealia": 2614,
      "Ġketika": 2615,
      "Ġspektrum": 2616,
      "ĠKetika": 2617,
      "Ġpropikonazol": 2618,
      "Ġberkepanjangan": 2619,
      "Ġazoksistrobin": 2620,
      "Ġkimiawi": 2621,
      "acilliform": 2622,
      "Ġophiobolin": 2623,
      "Ġbijaksana": 2624,
      "Ġdrastis": 2625,
      "Ġfluorescens": 2626,
      "arbendazim": 2627,
      "Nephotettix": 2628,
      "\",": 2629,
      "%.": 2630,
      "11": 2631,
      "14": 2632,
      "100": 2633,
      "81": 2634,
      "DB": 2635,
      "Gr": 2636,
      "Po": 2637,
      "PCR": 2638,
      "PDA": 2639,
      "Rice": 2640,
      "SD": 2641,
      "aing": 2642,
      "aja": 2643,
      "bi": 2644,
      "bor": 2645,
      "bangan": 2646,
      "bena": 2647,
      "ck": 2648,
      "ciri": 2649,
      "cescens": 2650,
      "clad": 2651,
      "dr": 2652,
      "dasarkan": 2653,
      "ec": 2654,
      "eor": 2655,
      "eimbangan": 2656,
      "fl": 2657,
      "fr": 2658,
      "fasil": 2659,
      "git": 2660,
      "gil": 2661,
      "hib": 2662,
      "hop": 2663,
      "igen": 2664,
      "iabilitas": 2665,
      "jika": 2666,
      "ku": 2667,
      "kek": 2668,
      "kel": 2669,
      "kuat": 2670,
      "krip": 2671,
      "lant": 2672,
      "last": 2673,
      "lup": 2674,
      "leaf": 2675,
      "mat": 2676,
      "mus": 2677,
      "mil": 2678,
      "mudah": 2679,
      "nak": 2680,
      "oti": 2681,
      "ous": 2682,
      "ozeb": 2683,
      "pangan": 2684,
      "put": 2685,
      "padi": 2686,
      "pensi": 2687,
      "pada": 2688,
      "patah": 2689,
      "panjang": 2690,
      "ram": 2691,
      "ratan": 2692,
      "ric": 2693,
      "rump": 2694,
      "ratia": 2695,
      "sko": 2696,
      "sual": 2697,
      "suhu": 2698,
      "tung": 2699,
      "tahan": 2700,
      "taf": 2701,
      "tagonis": 2702,
      "uanya": 2703,
      "uarkan": 2704,
      "ucat": 2705,
      "vasi": 2706,
      "varietas": 2707,
      "wind": 2708,
      "yc": 2709,
      "yeksi": 2710,
      "yric": 2711,
      "Ġ>": 2712,
      "Ġ?": 2713,
      "Ġen": 2714,
      "Ġasi": 2715,
      "Ġil": 2716,
      "Ġunggul": 2717,
      "Ġ50": 2718,
      "Ġimp": 2719,
      "anin": 2720,
      "endal": 2721,
      "enom": 2722,
      "erol": 2723,
      "eraan": 2724,
      "erusakan": 2725,
      "ereks": 2726,
      "Ġpar": 2727,
      "Ġpati": 2728,
      "Ġpangk": 2729,
      "Ġpint": 2730,
      "Ġpasar": 2731,
      "Ġpingg": 2732,
      "Ġpindahan": 2733,
      "Ġpucat": 2734,
      "Ġdur": 2735,
      "Ġdom": 2736,
      "Ġdasar": 2737,
      "Ġmar": 2738,
      "Ġmon": 2739,
      "Ġmol": 2740,
      "Ġmod": 2741,
      "Ġmos": 2742,
      "Ġmanfaat": 2743,
      "Ġminim": 2744,
      "Ġmahal": 2745,
      "Ġmigrasi": 2746,
      "atasi": 2747,
      "atih": 2748,
      "ateg": 2749,
      "atunya": 2750,
      "Ġtur": 2751,
      "Ġtro": 2752,
      "Ġtip": 2753,
      "Ġtangg": 2754,
      "Ġtangk": 2755,
      "Ġteks": 2756,
      "Ġtangga": 2757,
      "Ġtabung": 2758,
      "Ġteor": 2759,
      "Ġsap": 2760,
      "Ġseng": 2761,
      "Ġsus": 2762,
      "Ġsensi": 2763,
      "Ġsebaran": 2764,
      "Ġsemp": 2765,
      "Ġsurfaktan": 2766,
      "Ġsclad": 2767,
      "ine": 2768,
      "inan": 2769,
      "ald": 2770,
      "alih": 2771,
      "alatan": 2772,
      "alanya": 2773,
      "alender": 2774,
      "aku": 2775,
      "akang": 2776,
      "aktik": 2777,
      "anglad": 2778,
      "Ġbantu": 2779,
      "Ġbacilliform": 2780,
      "undaan": 2781,
      "arti": 2782,
      "arau": 2783,
      "arutan": 2784,
      "amanya": 2785,
      "amili": 2786,
      "adasi": 2787,
      "adukan": 2788,
      "Ġpenga": 2789,
      "Ġpendukung": 2790,
      "Ġpenanaman": 2791,
      "emar": 2792,
      "emeh": 2793,
      "emaran": 2794,
      "Ġmenul": 2795,
      "Ġmenand": 2796,
      "Ġmenanam": 2797,
      "Ġmeninggalkan": 2798,
      "apis": 2799,
      "aptaf": 2800,
      "Ġkot": 2801,
      "Ġkaj": 2802,
      "Ġkait": 2803,
      "Ġklor": 2804,
      "Ġkabut": 2805,
      "itic": 2806,
      "itatif": 2807,
      "Ġlint": 2808,
      "Ġlengk": 2809,
      "Ġlangkah": 2810,
      "Ġlarutan": 2811,
      "ebijakan": 2812,
      "ekul": 2813,
      "ekati": 2814,
      "ektif": 2815,
      "ekaman": 2816,
      "ekologi": 2817,
      "eles": 2818,
      "elci": 2819,
      "eluarkan": 2820,
      "Ġpenyebar": 2821,
      "Ġdiuk": 2822,
      "Ġdiint": 2823,
      "Ġdidu": 2824,
      "Ġdiev": 2825,
      "Ġdiversifikasi": 2826,
      "Ġdigit": 2827,
      "ukai": 2828,
      "oros": 2829,
      "Ġterisi": 2830,
      "Ġterting": 2831,
      "Ġteratur": 2832,
      "Ġternak": 2833,
      "Ġberpengaruh": 2834,
      "Ġberimbang": 2835,
      "Ġberagam": 2836,
      "Ġberalih": 2837,
      "Ġberarti": 2838,
      "unga": 2839,
      "urn": 2840,
      "urkh": 2841,
      "etahanan": 2842,
      "rofik": 2843,
      "rofit": 2844,
      "ĠBahan": 2845,
      "ĠBesar": 2846,
      "ĠBanyak": 2847,
      "ĠBintik": 2848,
      "ĠBipolaris": 2849,
      "ĠBlast": 2850,
      "ĠBanglad": 2851,
      "ĠBurkh": 2852,
      "Ġmemengaruh": 2853,
      "Ġmemudah": 2854,
      "Ġmempertimbangkan": 2855,
      "Ġmeminimal": 2856,
      "Ġmemenuh": 2857,
      "Ġmemahami": 2858,
      "Ġmemainkan": 2859,
      "Ġmemfasil": 2860,
      "Ġjut": 2861,
      "Ġjemb": 2862,
      "Ġjenuh": 2863,
      "gene": 2864,
      "genangan": 2865,
      "isar": 2866,
      "iset": 2867,
      "istor": 2868,
      "isolasi": 2869,
      "iserol": 2870,
      "iklus": 2871,
      "Ġhab": 2872,
      "Ġhil": 2873,
      "Ġhiper": 2874,
      "Ġherb": 2875,
      "Ġhistor": 2876,
      "Ġinfek": 2877,
      "Ġinok": 2878,
      "Ġinhib": 2879,
      "Ġinput": 2880,
      "Ġperc": 2881,
      "Ġpersist": 2882,
      "Ġperata": 2883,
      "Ġpertim": 2884,
      "Ġperalatan": 2885,
      "ariabilitas": 2886,
      "Ġseger": 2887,
      "Ġsepanjang": 2888,
      "ĠPupuk": 2889,
      "ĠPaparan": 2890,
      "ĠPth": 2891,
      "ĠPyric": 2892,
      "olon": 2893,
      "older": 2894,
      "ulih": 2895,
      "uluh": 2896,
      "ĠSisa": 2897,
      "ĠSeh": 2898,
      "ĠSiklus": 2899,
      "Ġrati": 2900,
      "Ġrain": 2901,
      "Ġruas": 2902,
      "Ġrasa": 2903,
      "Ġrice": 2904,
      "Ġriset": 2905,
      "ĠAS": 2906,
      "utup": 2907,
      "Ġmengid": 2908,
      "Ġmengand": 2909,
      "Ġmengeluarkan": 2910,
      "esh": 2911,
      "esan": 2912,
      "espons": 2913,
      "Ġviabilitas": 2914,
      "Ġvariabilitas": 2915,
      "Ġgej": 2916,
      "Ġgangg": 2917,
      "Ġgram": 2918,
      "ilan": 2919,
      "ilis": 2920,
      "ilip": 2921,
      "ilangkan": 2922,
      "ilaian": 2923,
      "Ġfr": 2924,
      "Ġfir": 2925,
      "Ġfokus": 2926,
      "Ġfamili": 2927,
      "iring": 2928,
      "ĠMP": 2929,
      "ĠMem": 2930,
      "ĠMon": 2931,
      "ĠMenc": 2932,
      "ĠManc": 2933,
      "ĠMeski": 2934,
      "otoksin": 2935,
      "Ġcekaman": 2936,
      "Ġcelci": 2937,
      "Ġmenyad": 2938,
      "Ġmenyatu": 2939,
      "Ġmenyesuaikan": 2940,
      "Ġblas": 2941,
      "Ġketim": 2942,
      "Ġkejad": 2943,
      "antangan": 2944,
      "antitas": 2945,
      "dalkan": 2946,
      "Ġmembesar": 2947,
      "Ġmembutuhkan": 2948,
      "Ġmembatasi": 2949,
      "Ġpenggenangan": 2950,
      "adium": 2951,
      "aceae": 2952,
      "Ġmelaporkan": 2953,
      "Ġmelengk": 2954,
      "afis": 2955,
      "Ġdaripada": 2956,
      "eptor": 2957,
      "gional": 2958,
      "ĠSpesi": 2959,
      "entris": 2960,
      "atib": 2961,
      "okal": 2962,
      "Ġleafhop": 2963,
      "Ġspherical": 2964,
      "Ġwakt": 2965,
      "Ġwij": 2966,
      "Ġwheat": 2967,
      "ĠKeber": 2968,
      "ĠKerusakan": 2969,
      "ĠKebijakan": 2970,
      "ĠKetahanan": 2971,
      "ampur": 2972,
      "ampaikan": 2973,
      "ampilan": 2974,
      "Ġbiot": 2975,
      "Ġbios": 2976,
      "uduk": 2977,
      "omyc": 2978,
      "Ġorang": 2979,
      "ĠPenurunan": 2980,
      "ĠPenularan": 2981,
      "ĠPenanaman": 2982,
      "ĠPenemuan": 2983,
      "ĠTingkat": 2984,
      "ĠTantangan": 2985,
      "Ġnasional": 2986,
      "ipratan": 2987,
      "Ġvirescens": 2988,
      "Ġpetugas": 2989,
      "ĠIR": 2990,
      "ĠIs": 2991,
      "iaya": 2992,
      "Ġsebutan": 2993,
      "Ġsebaliknya": 2994,
      "Ġsebagian": 2995,
      "yza": 2996,
      "ĠDr": 2997,
      "ĠDis": 2998,
      "ĠDef": 2999,
      "Ġgene": 3000,
      "Ġsifat": 3001,
      "ĠRep": 3002,
      "ĠResidu": 3003,
      "Ġkelaparan": 3004,
      "Ġpanas": 3005,
      "kospora": 3006,
      "Ġselain": 3007,
      "Ġberbunga": 3008,
      "Ġawalnya": 3009,
      "tisip": 3010,
      "indah": 3011,
      "inderaan": 3012,
      "Ġmencari": 3013,
      "ĠCP": 3014,
      "ĠCh": 3015,
      "ĠCul": 3016,
      "ĠCBI": 3017,
      "ĠCarbendazim": 3018,
      "ĠCaptaf": 3019,
      "ubang": 3020,
      "Ġmemperhatikan": 3021,
      "Ġmemperkuat": 3022,
      "Ġmempermudah": 3023,
      "Ġprogr": 3024,
      "Ġprobena": 3025,
      "Ġmerangs": 3026,
      "Ġmerespons": 3027,
      "Ġmerilis": 3028,
      "Ġstrateg": 3029,
      "ĠPengujian": 3030,
      "opsi": 3031,
      "Ġditekan": 3032,
      "Ġditentukan": 3033,
      "Ġditinggalkan": 3034,
      "anjikan": 3035,
      "ĠJenis": 3036,
      "ĠJalur": 3037,
      "andar": 3038,
      "Ġdiserang": 3039,
      "Ġdisemprot": 3040,
      "Ġdisukai": 3041,
      "unculan": 3042,
      "Ġreal": 3043,
      "Ġreaksi": 3044,
      "Ġregional": 3045,
      "Ġperkembangannya": 3046,
      "ĠHasil": 3047,
      "ĠHujan": 3048,
      "ĠHDB": 3049,
      "Ġkeselur": 3050,
      "Ġkeseimbangan": 3051,
      "Ġpreferensi": 3052,
      "Ġkematian": 3053,
      "Ġkemunculan": 3054,
      "tivator": 3055,
      "ganti": 3056,
      "Ġdiberi": 3057,
      "Ġberlangsung": 3058,
      "presi": 3059,
      "ĠGen": 3060,
      "Ġpembesar": 3061,
      "Ġpembersihan": 3062,
      "Ġseksual": 3063,
      "tansi": 3064,
      "tanda": 3065,
      "tanian": 3066,
      "ĠLahan": 3067,
      "ĠLokal": 3068,
      "Ġkekuatan": 3069,
      "masing": 3070,
      "anye": 3071,
      "ĠPerubahan": 3072,
      "ĠPercikan": 3073,
      "ĠPertanian": 3074,
      "Ġspesies": 3075,
      "Ġtetesan": 3076,
      "Ġterlambat": 3077,
      "Ġterlatih": 3078,
      "ĠSelatan": 3079,
      "konomi": 3080,
      "osot": 3081,
      "Ġpraktis": 3082,
      "ajat": 3083,
      "ĠFilip": 3084,
      "Ġbahasa": 3085,
      "Ġrot": 3086,
      "Ġpelindung": 3087,
      "Ġmengenal": 3088,
      "Ġ12": 3089,
      "Ġmeter": 3090,
      "Ġpenduduk": 3091,
      "Ġdipicu": 3092,
      "Ġdipadukan": 3093,
      "ĠBerk": 3094,
      "Ġdikenali": 3095,
      "Ġgliserol": 3096,
      "okultur": 3097,
      "seimbangan": 3098,
      "Ġsemua": 3099,
      "Ġrendemen": 3100,
      "Ġ28": 3101,
      "Ġagak": 3102,
      "integrasi": 3103,
      "itors": 3104,
      "ĠUV": 3105,
      "ĠUSD": 3106,
      "Ġkompos": 3107,
      "Ġkompatib": 3108,
      "anfaatan": 3109,
      "Ġtahap": 3110,
      "Ġterkendal": 3111,
      "ĠSeperti": 3112,
      "Ġreseptor": 3113,
      "ĠKelembaban": 3114,
      "Ġisolasi": 3115,
      "Ġoptimum": 3116,
      "Ġaspek": 3117,
      "ence": 3118,
      "Ġmasing": 3119,
      "Ġmisdi": 3120,
      "atahkan": 3121,
      "Ġskald": 3122,
      "Ġkeberhasil": 3123,
      "Ġdimaks": 3124,
      "Ġberpindah": 3125,
      "Ġbersaing": 3126,
      "Ġmemberi": 3127,
      "iofor": 3128,
      "ynthe": 3129,
      "zole": 3130,
      "ĠEkonomi": 3131,
      "Ġmenjanjikan": 3132,
      "spektr": 3133,
      "Ġ40": 3134,
      "Ġdefence": 3135,
      "Ġtiap": 3136,
      "Ġpencemaran": 3137,
      "Ġmemutuskan": 3138,
      "Ġproduktif": 3139,
      "Ġproduktivitas": 3140,
      "Ġmasalahnya": 3141,
      "000": 3142,
      "fikasikan": 3143,
      "ĠWereng": 3144,
      "Ġovereks": 3145,
      "Ġsampai": 3146,
      "Ġterdiri": 3147,
      "ĠSerratia": 3148,
      "ĠStruktur": 3149,
      "Ġmengakses": 3150,
      "Ġmengaktifkan": 3151,
      "Ġmengakibatkan": 3152,
      "Ġmenguntung": 3153,
      "ĠTritic": 3154,
      "ĠTerlalu": 3155,
      "Ġtranslokasi": 3156,
      "Ġtranskrip": 3157,
      "Ġ60": 3158,
      "Ġmakro": 3159,
      "amineae": 3160,
      "Ġtercatat": 3161,
      "Ġtercuci": 3162,
      "Ġtercemar": 3163,
      "Ġkonsentris": 3164,
      "ĠOryza": 3165,
      "bintik": 3166,
      "neck": 3167,
      "wasan": 3168,
      "ĠPreferensi": 3169,
      "ĠPraktik": 3170,
      "Ġrumpun": 3171,
      "Ġkonteks": 3172,
      "Ġkonidiofor": 3173,
      "Ġantibakteri": 3174,
      "Ġbersamaan": 3175,
      "Ġkolonisasi": 3176,
      "RTBV": 3177,
      "RTSV": 3178,
      "kemampuan": 3179,
      "Ġ32": 3180,
      "Ġacak": 3181,
      "Ġactivator": 3182,
      "Ġtimbulnya": 3183,
      "Ġbelakang": 3184,
      "Ġkebijakan": 3185,
      "Ġlaten": 3186,
      "Ġlatar": 3187,
      "Ġliteratur": 3188,
      "Ġdicapai": 3189,
      "ĠPembentukan": 3190,
      "ĠSemua": 3191,
      "ĠSemakin": 3192,
      "ĠSebaliknya": 3193,
      "ĠAnalisis": 3194,
      "ĠAntagonis": 3195,
      "ĠMelakukan": 3196,
      "ĠKeputusan": 3197,
      "ĠKepadatan": 3198,
      "ensifkan": 3199,
      "Ġbiotipe": 3200,
      "ĠEfektivitasnya": 3201,
      "Ġendemis": 3202,
      "Ġendemik": 3203,
      "iven": 3204,
      "lasifikasikan": 3205,
      "ografis": 3206,
      "tektan": 3207,
      "vestasi": 3208,
      "Ġ86": 3209,
      "Ġ90": 3210,
      "entikan": 3211,
      "Ġderajat": 3212,
      "Ġmultip": 3213,
      "Ġsukulen": 3214,
      "Ġsterilitas": 3215,
      "Ġkinase": 3216,
      "Ġterjadwal": 3217,
      "Ġberfungsi": 3218,
      "ĠStadium": 3219,
      "Ġreproduksi": 3220,
      "Ġmengandalkan": 3221,
      "Ġmenginduksi": 3222,
      "Ġgiling": 3223,
      "ĠMAC": 3224,
      "ĠMereka": 3225,
      "ĠMembersihkan": 3226,
      "ĠMikroba": 3227,
      "Ġcermat": 3228,
      "Ġkedua": 3229,
      "Ġketidakp": 3230,
      "egradasi": 3231,
      "Ġsimp": 3232,
      "ĠResistensi": 3233,
      "koordinasi": 3234,
      "Ġpredator": 3235,
      "Ġkemerahan": 3236,
      "Ġpemulia": 3237,
      "Ġmetabolisme": 3238,
      "Ġagroekologi": 3239,
      "Ġkonsumen": 3240,
      "Gramineae": 3241,
      "Poaceae": 3242,
      "borne": 3243,
      "driven": 3244,
      "giliran": 3245,
      "igenous": 3246,
      "kekeringan": 3247,
      "kelembapan": 3248,
      "milat": 3249,
      "rumputan": 3250,
      "tahankan": 3251,
      "Ġenzim": 3252,
      "Ġasimilat": 3253,
      "enomena": 3254,
      "Ġpangkal": 3255,
      "Ġdominan": 3256,
      "Ġmarcescens": 3257,
      "Ġmolekul": 3258,
      "Ġmodel": 3259,
      "Ġmosaik": 3260,
      "Ġturgor": 3261,
      "Ġtropis": 3262,
      "Ġtangkai": 3263,
      "Ġtekstur": 3264,
      "Ġteoritis": 3265,
      "Ġsaprofit": 3266,
      "Ġsengaja": 3267,
      "Ġpengawasan": 3268,
      "emehkan": 3269,
      "Ġmenular": 3270,
      "Ġmenandakan": 3271,
      "Ġkotor": 3272,
      "Ġkajian": 3273,
      "Ġkaitan": 3274,
      "Ġklorosis": 3275,
      "Ġlintas": 3276,
      "elesaikan": 3277,
      "Ġdiukur": 3278,
      "Ġdiintensifkan": 3279,
      "Ġdiduga": 3280,
      "Ġdievaluasi": 3281,
      "Ġdigital": 3282,
      "ĠBangladesh": 3283,
      "ĠBurkholder": 3284,
      "Ġmemengaruhi": 3285,
      "Ġmemudahkan": 3286,
      "Ġmeminimalkan": 3287,
      "Ġmemenuhi": 3288,
      "Ġmemfasilitasi": 3289,
      "Ġjuta": 3290,
      "Ġjembatan": 3291,
      "Ġhilang": 3292,
      "Ġherbisida": 3293,
      "Ġhistoris": 3294,
      "Ġinfektif": 3295,
      "Ġinokulasi": 3296,
      "Ġinhibitors": 3297,
      "Ġpertimbangan": 3298,
      "Ġsegera": 3299,
      "ĠPyricularia": 3300,
      "ĠSehat": 3301,
      "Ġratio": 3302,
      "Ġmengidentifikasi": 3303,
      "Ġmengandung": 3304,
      "Ġgangguan": 3305,
      "Ġfirmus": 3306,
      "ĠMancozeb": 3307,
      "Ġcelcius": 3308,
      "Ġketimpangan": 3309,
      "Ġkejadian": 3310,
      "Ġmelengkung": 3311,
      "ĠSpesies": 3312,
      "Ġleafhopper": 3313,
      "Ġwaktunya": 3314,
      "Ġwijen": 3315,
      "ĠKeberadaan": 3316,
      "Ġbiosynthe": 3317,
      "ĠDefisiensi": 3318,
      "ĠCaptafol": 3319,
      "Ġprogram": 3320,
      "Ġprobenazole": 3321,
      "Ġmerangsang": 3322,
      "Ġstrategis": 3323,
      "Ġdisemprotkan": 3324,
      "Ġkeseluruhan": 3325,
      "ĠFilipina": 3326,
      "Ġterkendali": 3327,
      "Ġmisdiagnosis": 3328,
      "Ġkeberhasilan": 3329,
      "Ġdimaksud": 3330,
      "spektral": 3331,
      "Ġoverekspresi": 3332,
      "Ġmenguntungkan": 3333,
      "ĠTriticum": 3334,
      "Ġtranskripsi": 3335,
      "Ġmolekuler": 3336,
      "ĠBurkholderia": 3337,
      "\".": 3338,
      "\"),": 3339,
      "%,": 3340,
      ",.": 3341,
      ".}": 3342,
      ".),": 3343,
      "07": 3344,
      "10": 3345,
      "24": 3346,
      "200": 3347,
      "255": 3348,
      "42": 3349,
      "43": 3350,
      "51": 3351,
      "59": 3352,
      "63": 3353,
      "64": 3354,
      "79": 3355,
      "80": 3356,
      "859": 3357,
      "96": 3358,
      "AV": 3359,
      "AW": 3360,
      "Al": 3361,
      "Az": 3362,
      "Agen": 3363,
      "BB": 3364,
      "Brown": 3365,
      "Bipolaris": 3366,
      "Fe": 3367,
      "IS": 3368,
      "Kont": 3369,
      "LAMP": 3370,
      "LIS": 3371,
      "Mn": 3372,
      "Meng": 3373,
      "Magnaporthe": 3374,
      "Microdochium": 3375,
      "NA": 3376,
      "OR": 3377,
      "Or": 3378,
      "PR": 3379,
      "PT": 3380,
      "Pol": 3381,
      "RH": 3382,
      "RI": 3383,
      "Rhynchosporium": 3384,
      "TP": 3385,
      "WL": 3386,
      "Wil": 3387,
      "ajuk": 3388,
      "bang": 3389,
      "bahan": 3390,
      "bagai": 3391,
      "bisa": 3392,
      "baik": 3393,
      "bentuk": 3394,
      "belum": 3395,
      "banyak": 3396,
      "bescens": 3397,
      "blas": 3398,
      "bakar": 3399,
      "biaya": 3400,
      "ct": 3401,
      "cin": 3402,
      "cad": 3403,
      "cis": 3404,
      "cik": 3405,
      "con": 3406,
      "col": 3407,
      "cid": 3408,
      "cir": 3409,
      "cep": 3410,
      "cosp": 3411,
      "cle": 3412,
      "comyc": 3413,
      "dan": 3414,
      "dara": 3415,
      "dakan": 3416,
      "dapa": 3417,
      "danya": 3418,
      "duan": 3419,
      "dentifikasi": 3420,
      "ew": 3421,
      "ey": 3422,
      "eat": 3423,
      "eon": 3424,
      "eom": 3425,
      "etisi": 3426,
      "eop": 3427,
      "eed": 3428,
      "edukasi": 3429,
      "etidak": 3430,
      "eografis": 3431,
      "fk": 3432,
      "fen": 3433,
      "fer": 3434,
      "fah": 3435,
      "fur": 3436,
      "fil": 3437,
      "fob": 3438,
      "fugi": 3439,
      "gam": 3440,
      "gara": 3441,
      "ggr": 3442,
      "hy": 3443,
      "har": 3444,
      "hel": 3445,
      "hari": 3446,
      "hana": 3447,
      "hamp": 3448,
      "hif": 3449,
      "hindari": 3450,
      "hiz": 3451,
      "hail": 3452,
      "hine": 3453,
      "hentikan": 3454,
      "iw": 3455,
      "ier": 3456,
      "ial": 3457,
      "ias": 3458,
      "ius": 3459,
      "iakan": 3460,
      "iga": 3461,
      "iod": 3462,
      "iarkan": 3463,
      "iasanya": 3464,
      "iasa": 3465,
      "iong": 3466,
      "iagnosis": 3467,
      "igenik": 3468,
      "jah": 3469,
      "jamur": 3470,
      "jenis": 3471,
      "jangk": 3472,
      "jaga": 3473,
      "jauh": 3474,
      "jong": 3475,
      "jaringan": 3476,
      "jemen": 3477,
      "kir": 3478,
      "kac": 3479,
      "kala": 3480,
      "kok": 3481,
      "kusi": 3482,
      "kub": 3483,
      "kual": 3484,
      "keter": 3485,
      "klor": 3486,
      "kisar": 3487,
      "la": 3488,
      "lo": 3489,
      "ler": 3490,
      "lang": 3491,
      "lar": 3492,
      "lai": 3493,
      "lik": 3494,
      "lab": 3495,
      "lot": 3496,
      "lebih": 3497,
      "leg": 3498,
      "latan": 3499,
      "lobal": 3500,
      "lebihan": 3501,
      "langkah": 3502,
      "lapis": 3503,
      "mu": 3504,
      "mel": 3505,
      "mur": 3506,
      "meng": 3507,
      "mon": 3508,
      "mul": 3509,
      "ment": 3510,
      "mend": 3511,
      "mod": 3512,
      "musim": 3513,
      "minimal": 3514,
      "matia": 3515,
      "mbang": 3516,
      "no": 3517,
      "nt": 3518,
      "nah": 3519,
      "nom": 3520,
      "nzim": 3521,
      "ox": 3522,
      "ogen": 3523,
      "otif": 3524,
      "otik": 3525,
      "ogenik": 3526,
      "oord": 3527,
      "ofur": 3528,
      "ogam": 3529,
      "pin": 3530,
      "pol": 3531,
      "pir": 3532,
      "pot": 3533,
      "pani": 3534,
      "peksi": 3535,
      "plor": 3536,
      "pindahan": 3537,
      "posisi": 3538,
      "rat": 3539,
      "ral": 3540,
      "rem": 3541,
      "ras": 3542,
      "rac": 3543,
      "rasil": 3544,
      "resi": 3545,
      "rig": 3546,
      "rata": 3547,
      "ruktur": 3548,
      "rasa": 3549,
      "rio": 3550,
      "rice": 3551,
      "reat": 3552,
      "sa": 3553,
      "ser": 3554,
      "sal": 3555,
      "seb": 3556,
      "sel": 3557,
      "sama": 3558,
      "scald": 3559,
      "sensi": 3560,
      "seg": 3561,
      "sangat": 3562,
      "sumber": 3563,
      "sentif": 3564,
      "sering": 3565,
      "semaian": 3566,
      "solusi": 3567,
      "seksual": 3568,
      "slokasi": 3569,
      "satunya": 3570,
      "tu": 3571,
      "tz": 3572,
      "tun": 3573,
      "tah": 3574,
      "ton": 3575,
      "tama": 3576,
      "tungan": 3577,
      "tumbuhan": 3578,
      "tepi": 3579,
      "tabil": 3580,
      "titik": 3581,
      "tinya": 3582,
      "tail": 3583,
      "toler": 3584,
      "tensif": 3585,
      "trofik": 3586,
      "tomyc": 3587,
      "uah": 3588,
      "uap": 3589,
      "uisi": 3590,
      "uensi": 3591,
      "vag": 3592,
      "vensi": 3593,
      "vularia": 3594,
      "wan": 3595,
      "wung": 3596,
      "waktu": 3597,
      "walnya": 3598,
      "warn": 3599,
      "xil": 3600,
      "xser": 3601,
      "ying": 3602,
      "yuran": 3603,
      "ysia": 3604,
      "yarak": 3605,
      "zian": 3606,
      "Ġ%": 3607,
      "Ġ.": 3608,
      "Ġ0": 3609,
      "Ġer": 3610,
      "Ġel": 3611,
      "Ġut": 3612,
      "Ġes": 3613,
      "Ġamur": 3614,
      "Ġungro": 3615,
      "Ġumb": 3616,
      "Ġand": 3617,
      "ĠâĢĵ": 3618,
      "Ġulang": 3619,
      "Ġiz": 3620,
      "ĠÂ°": 3621,
      "Ġoksi": 3622,
      "Ġempat": 3623,
      "Ġamin": 3624,
      "Ġera": 3625,
      "Ġuap": 3626,
      "Ġxil": 3627,
      "anan": 3628,
      "anen": 3629,
      "anek": 3630,
      "anda": 3631,
      "anaan": 3632,
      "anusia": 3633,
      "enam": 3634,
      "enah": 3635,
      "enae": 3636,
      "enif": 3637,
      "enarkan": 3638,
      "enaga": 3639,
      "entil": 3640,
      "eras": 3641,
      "erasi": 3642,
      "erian": 3643,
      "erup": 3644,
      "erim": 3645,
      "erase": 3646,
      "erhe": 3647,
      "ertil": 3648,
      "erbangkan": 3649,
      "ermis": 3650,
      "ervasi": 3651,
      "Ġpak": 3652,
      "Ġpus": 3653,
      "Ġpakan": 3654,
      "Ġpot": 3655,
      "Ġpast": 3656,
      "Ġped": 3657,
      "Ġpons": 3658,
      "Ġpasti": 3659,
      "Ġpilihan": 3660,
      "Ġplant": 3661,
      "Ġpulih": 3662,
      "Ġdem": 3663,
      "Ġding": 3664,
      "Ġdek": 3665,
      "Ġdro": 3666,
      "Ġdes": 3667,
      "Ġdemp": 3668,
      "Ġdesk": 3669,
      "Ġdegradasi": 3670,
      "Ġmat": 3671,
      "Ġmin": 3672,
      "Ġmeb": 3673,
      "Ġmik": 3674,
      "Ġmac": 3675,
      "Ġmand": 3676,
      "Ġmina": 3677,
      "Ġminimal": 3678,
      "Ġmingg": 3679,
      "sisi": 3680,
      "siapan": 3681,
      "site": 3682,
      "atal": 3683,
      "atuh": 3684,
      "atuhan": 3685,
      "atelit": 3686,
      "Ġtap": 3687,
      "Ġtel": 3688,
      "Ġtung": 3689,
      "Ġtut": 3690,
      "Ġteg": 3691,
      "Ġtumbuhan": 3692,
      "Ġturun": 3693,
      "Ġtump": 3694,
      "Ġtelur": 3695,
      "Ġtampilan": 3696,
      "Ġtajuk": 3697,
      "Ġtreat": 3698,
      "Ġtenaga": 3699,
      "Ġsam": 3700,
      "Ġsas": 3701,
      "Ġsor": 3702,
      "Ġsab": 3703,
      "Ġsemb": 3704,
      "Ġsper": 3705,
      "Ġsana": 3706,
      "Ġsent": 3707,
      "Ġsend": 3708,
      "Ġsaling": 3709,
      "Ġsens": 3710,
      "Ġsemprotan": 3711,
      "Ġsempat": 3712,
      "Ġsolusi": 3713,
      "Ġsemprot": 3714,
      "Ġsatunya": 3715,
      "Ġshif": 3716,
      "Ġsatelit": 3717,
      "inat": 3718,
      "inkan": 3719,
      "inisi": 3720,
      "ines": 3721,
      "inian": 3722,
      "inaran": 3723,
      "inokulum": 3724,
      "investasi": 3725,
      "incin": 3726,
      "alang": 3727,
      "alor": 3728,
      "alid": 3729,
      "alim": 3730,
      "alig": 3731,
      "aluran": 3732,
      "alihan": 3733,
      "akai": 3734,
      "akatan": 3735,
      "akaran": 3736,
      "akhir": 3737,
      "aktifkan": 3738,
      "angus": 3739,
      "angtz": 3740,
      "Ġbid": 3741,
      "Ġbeg": 3742,
      "Ġbelah": 3743,
      "Ġbuti": 3744,
      "Ġbuatan": 3745,
      "Ġbintik": 3746,
      "Ġboros": 3747,
      "Ġbuah": 3748,
      "unal": 3749,
      "uning": 3750,
      "untuk": 3751,
      "unakan": 3752,
      "uningan": 3753,
      "unjuk": 3754,
      "untungan": 3755,
      "aram": 3756,
      "arik": 3757,
      "arus": 3758,
      "arangan": 3759,
      "arda": 3760,
      "area": 3761,
      "aragaman": 3762,
      "amika": 3763,
      "amalan": 3764,
      "ahat": 3765,
      "ading": 3766,
      "adisi": 3767,
      "adir": 3768,
      "adikasi": 3769,
      "adiran": 3770,
      "adwal": 3771,
      "adopsi": 3772,
      "Ġpenump": 3773,
      "Ġpenampakan": 3774,
      "Ġpeneliti": 3775,
      "Ġpenemuan": 3776,
      "Ġpenundaan": 3777,
      "Ġpenilaian": 3778,
      "Ġpenampilan": 3779,
      "ema": 3780,
      "emu": 3781,
      "emas": 3782,
      "eminasi": 3783,
      "emahkan": 3784,
      "Ġmenit": 3785,
      "Ġmenahan": 3786,
      "Ġmencak": 3787,
      "Ġmenamb": 3788,
      "Ġmenentu": 3789,
      "Ġmenemukan": 3790,
      "Ġmenarget": 3791,
      "Ġmenimbang": 3792,
      "Ġmenengah": 3793,
      "Ġmenularkan": 3794,
      "Ġmentek": 3795,
      "Ġmenilai": 3796,
      "Ġmenangkap": 3797,
      "Ġmenutup": 3798,
      "Ġmenarik": 3799,
      "apar": 3800,
      "apkan": 3801,
      "aphel": 3802,
      "aplo": 3803,
      "Ġkor": 3804,
      "Ġkur": 3805,
      "Ġkus": 3806,
      "Ġkut": 3807,
      "Ġkant": 3808,
      "Ġkac": 3809,
      "Ġkapan": 3810,
      "Ġkunc": 3811,
      "Ġkata": 3812,
      "Ġkaya": 3813,
      "Ġkuat": 3814,
      "Ġkalium": 3815,
      "Ġkubah": 3816,
      "Ġkebas": 3817,
      "Ġkombinasi": 3818,
      "Ġkarat": 3819,
      "Ġkarb": 3820,
      "Ġkadang": 3821,
      "Ġklasi": 3822,
      "Ġkarbendazim": 3823,
      "Ġkalender": 3824,
      "Ġkaku": 3825,
      "Ġkoord": 3826,
      "Ġkalor": 3827,
      "Ġkuning": 3828,
      "itan": 3829,
      "itat": 3830,
      "itung": 3831,
      "itesi": 3832,
      "itma": 3833,
      "itotoksin": 3834,
      "itiga": 3835,
      "Ġlon": 3836,
      "Ġlil": 3837,
      "Ġlay": 3838,
      "Ġlend": 3839,
      "Ġlakukan": 3840,
      "Ġlanc": 3841,
      "Ġlich": 3842,
      "Ġlamanya": 3843,
      "Ġlubang": 3844,
      "Ġlogam": 3845,
      "asah": 3846,
      "asari": 3847,
      "asalah": 3848,
      "aseksual": 3849,
      "ashi": 3850,
      "ekonomi": 3851,
      "ekurangan": 3852,
      "ektansi": 3853,
      "ekuensi": 3854,
      "eli": 3855,
      "elin": 3856,
      "elasi": 3857,
      "elai": 3858,
      "elih": 3859,
      "elir": 3860,
      "elati": 3861,
      "eleksi": 3862,
      "elaj": 3863,
      "elamatan": 3864,
      "tic": 3865,
      "tion": 3866,
      "tiga": 3867,
      "time": 3868,
      "tispektral": 3869,
      "tijamur": 3870,
      "asinya": 3871,
      "asitis": 3872,
      "Ġpenyerapan": 3873,
      "Ġpenyerb": 3874,
      "Ġpenyaringan": 3875,
      "Ġpenyimp": 3876,
      "Ġpenyaluran": 3877,
      "Ġpenyelamatan": 3878,
      "Ġdiarah": 3879,
      "Ġdiambil": 3880,
      "Ġdiikuti": 3881,
      "Ġdidasarkan": 3882,
      "Ġdiisolasi": 3883,
      "Ġdiganti": 3884,
      "Ġdifen": 3885,
      "Ġdiaktifkan": 3886,
      "Ġdiadopsi": 3887,
      "ukungan": 3888,
      "uktu": 3889,
      "organ": 3890,
      "oriz": 3891,
      "ormis": 3892,
      "oroti": 3893,
      "oranye": 3894,
      "ortun": 3895,
      "Ġterper": 3896,
      "Ġterpengaruh": 3897,
      "Ġtersisa": 3898,
      "Ġterganggu": 3899,
      "Ġterenc": 3900,
      "Ġteratas": 3901,
      "Ġterintegrasi": 3902,
      "Ġterkoordinasi": 3903,
      "Ġterjangk": 3904,
      "Ġterakhir": 3905,
      "Ġberum": 3906,
      "Ġbertuk": 3907,
      "Ġberemb": 3908,
      "Ġbergun": 3909,
      "Ġberuj": 3910,
      "Ġberkin": 3911,
      "Ġberev": 3912,
      "Ġberawan": 3913,
      "Ġberger": 3914,
      "Ġberjauh": 3915,
      "Ġberno": 3916,
      "Ġberinvestasi": 3917,
      "unguan": 3918,
      "urif": 3919,
      "urvularia": 3920,
      "Ġtaninya": 3921,
      "etom": 3922,
      "etting": 3923,
      "etaria": 3924,
      "etris": 3925,
      "etapkan": 3926,
      "rol": 3927,
      "rofob": 3928,
      "ĠBis": 3929,
      "ĠBeng": 3930,
      "ĠBesi": 3931,
      "ĠBaik": 3932,
      "ĠBelum": 3933,
      "ĠBalai": 3934,
      "ĠBudidaya": 3935,
      "ĠBekerja": 3936,
      "ĠBahkan": 3937,
      "ĠBagian": 3938,
      "ĠBila": 3939,
      "ĠBacilliform": 3940,
      "ĠBiasanya": 3941,
      "ĠBrasil": 3942,
      "ĠBalim": 3943,
      "Ġmemati": 3944,
      "Ġmemeg": 3945,
      "Ġmematahkan": 3946,
      "Ġjatuh": 3947,
      "Ġjahat": 3948,
      "Ġjadwal": 3949,
      "genjah": 3950,
      "iskan": 3951,
      "istik": 3952,
      "iskin": 3953,
      "isapan": 3954,
      "istis": 3955,
      "isposisi": 3956,
      "ument": 3957,
      "iklik": 3958,
      "iksa": 3959,
      "Ġhal": 3960,
      "Ġhol": 3961,
      "Ġhati": 3962,
      "Ġhom": 3963,
      "Ġhif": 3964,
      "Ġhindari": 3965,
      "Ġhenti": 3966,
      "Ġhangus": 3967,
      "Ġhaplo": 3968,
      "Ġhelai": 3969,
      "Ġhoriz": 3970,
      "agmen": 3971,
      "agelin": 3972,
      "Ġinisi": 3973,
      "Ġinduk": 3974,
      "Ġinov": 3975,
      "Ġinvasi": 3976,
      "Ġinfk": 3977,
      "Ġinkub": 3978,
      "enggara": 3979,
      "uspensi": 3980,
      "Ġpertuk": 3981,
      "Ġpersistensi": 3982,
      "Ġperekat": 3983,
      "Ġpergiliran": 3984,
      "Ġperiod": 3985,
      "Ġpernah": 3986,
      "Ġpersiapan": 3987,
      "Ġperamalan": 3988,
      "Ġperitesi": 3989,
      "onom": 3990,
      "onim": 3991,
      "ongan": 3992,
      "Ġsegi": 3993,
      "Ġsejuk": 3994,
      "Ġseder": 3995,
      "Ġseiring": 3996,
      "aulatan": 3997,
      "Ġtanamannya": 3998,
      "ĠPant": 3999,
      "ĠPent": 4000,
      "ĠPuti": 4001,
      "ĠPotensi": 4002,
      "ĠPran": 4003,
      "ĠPelat": 4004,
      "ĠProduksi": 4005,
      "ĠPekerja": 4006,
      "ĠPlas": 4007,
      "ĠPDA": 4008,
      "ĠPlant": 4009,
      "ĠPWL": 4010,
      "ĠParam": 4011,
      "isir": 4012,
      "isidal": 4013,
      "isilat": 4014,
      "olium": 4015,
      "oline": 4016,
      "uluhan": 4017,
      "ulma": 4018,
      "iherang": 4019,
      "ĠSes": 4020,
      "ĠSej": 4021,
      "ĠSup": 4022,
      "ĠSatu": 4023,
      "ĠSub": 4024,
      "ĠSerang": 4025,
      "ĠSumber": 4026,
      "ĠSosial": 4027,
      "ĠSurfaktan": 4028,
      "ĠSier": 4029,
      "ĠSkala": 4030,
      "ĠSetaria": 4031,
      "ĠSuspensi": 4032,
      "abiskan": 4033,
      "Ġreg": 4034,
      "Ġrimb": 4035,
      "Ġrata": 4036,
      "Ġrawa": 4037,
      "Ġrentang": 4038,
      "Ġriz": 4039,
      "Ġratus": 4040,
      "Ġrhy": 4041,
      "Ġriw": 4042,
      "apatkan": 4043,
      "ĠAI": 4044,
      "ĠAlat": 4045,
      "ĠAfr": 4046,
      "ĠATP": 4047,
      "ĠAcid": 4048,
      "ĠAdanya": 4049,
      "ĠAmbang": 4050,
      "ĠAwalnya": 4051,
      "utor": 4052,
      "utfah": 4053,
      "Ġmengisi": 4054,
      "Ġmengaw": 4055,
      "Ġmengant": 4056,
      "Ġmengkon": 4057,
      "Ġmenganggap": 4058,
      "Ġmengamati": 4059,
      "Ġmenggenang": 4060,
      "Ġmengisap": 4061,
      "Ġmengikuti": 4062,
      "Ġmengisolasi": 4063,
      "Ġmengganti": 4064,
      "Ġmengintegrasi": 4065,
      "Ġmengkoordinasi": 4066,
      "Ġmengedukasi": 4067,
      "esaan": 4068,
      "esekan": 4069,
      "esmata": 4070,
      "espot": 4071,
      "Ġvs": 4072,
      "Ġvec": 4073,
      "Ġventil": 4074,
      "Ġvalid": 4075,
      "embah": 4076,
      "alaman": 4077,
      "araan": 4078,
      "persist": 4079,
      "perma": 4080,
      "perekat": 4081,
      "Ġgig": 4082,
      "Ġgran": 4083,
      "Ġgaris": 4084,
      "Ġgeografis": 4085,
      "Ġganda": 4086,
      "Ġgerim": 4087,
      "Ġgarda": 4088,
      "Ġgesekan": 4089,
      "ide": 4090,
      "idu": 4091,
      "idup": 4092,
      "idrat": 4093,
      "ilas": 4094,
      "ilum": 4095,
      "ilih": 4096,
      "ilisasi": 4097,
      "ilaku": 4098,
      "Ġunit": 4099,
      "ingkar": 4100,
      "ingkungan": 4101,
      "Ġfajar": 4102,
      "Ġfenomena": 4103,
      "Ġfox": 4104,
      "Ġfertil": 4105,
      "Ġfatal": 4106,
      "Ġfitotoksin": 4107,
      "iraan": 4108,
      "iraman": 4109,
      "ĠMn": 4110,
      "ĠMo": 4111,
      "ĠMala": 4112,
      "ĠMerah": 4113,
      "ĠMutasi": 4114,
      "ĠMutan": 4115,
      "ĠMusuh": 4116,
      "ĠMatahari": 4117,
      "ĠMBI": 4118,
      "ĠManusia": 4119,
      "ĠMasalah": 4120,
      "ota": 4121,
      "ote": 4122,
      "otosintesis": 4123,
      "terlalu": 4124,
      "terbakar": 4125,
      "Ġcamp": 4126,
      "Ġcelah": 4127,
      "Ġcob": 4128,
      "Ġcontoh": 4129,
      "Ġcahaya": 4130,
      "Ġcenda": 4131,
      "Ġcipratan": 4132,
      "Ġcincin": 4133,
      "Ġserologis": 4134,
      "Ġseragam": 4135,
      "Ġserius": 4136,
      "Ġmenyed": 4137,
      "Ġmenyerap": 4138,
      "Ġmenyampaikan": 4139,
      "Ġmenyelesaikan": 4140,
      "Ġmenyerup": 4141,
      "Ġmenyeleksi": 4142,
      "Ġmenyoroti": 4143,
      "awahan": 4144,
      "Ġlearn": 4145,
      "Ġledakan": 4146,
      "Ġkegi": 4147,
      "Ġkedu": 4148,
      "Ġkeunggul": 4149,
      "Ġkeanek": 4150,
      "Ġkeuntungan": 4151,
      "Ġkeemas": 4152,
      "Ġketiga": 4153,
      "Ġkeunguan": 4154,
      "antitatif": 4155,
      "ebarkan": 4156,
      "astruktur": 4157,
      "Ġmembay": 4158,
      "Ġmemblok": 4159,
      "Ġmembakar": 4160,
      "Ġmembenam": 4161,
      "Ġpenghasil": 4162,
      "Ġpenginderaan": 4163,
      "Ġpengalaman": 4164,
      "acht": 4165,
      "action": 4166,
      "Ġmelep": 4167,
      "Ġmelekat": 4168,
      "Ġmelibatkan": 4169,
      "Ġmelanin": 4170,
      "Ġmelew": 4171,
      "Ġmelemahkan": 4172,
      "Ġmelingkar": 4173,
      "eptomyc": 4174,
      "epakatan": 4175,
      "ĠSpherical": 4176,
      "Ġterhdapa": 4177,
      "ation": 4178,
      "Ġterhadapa": 4179,
      "oka": 4180,
      "okonazol": 4181,
      "okinian": 4182,
      "okument": 4183,
      "ingkatkan": 4184,
      "ejalanya": 4185,
      "Ġspp": 4186,
      "Ġspec": 4187,
      "Ġkontrib": 4188,
      "Ġkonsistensi": 4189,
      "Ġkonfirmasi": 4190,
      "Ġinfeksii": 4191,
      "ĠKeh": 4192,
      "ĠKom": 4193,
      "ĠKurang": 4194,
      "ĠKed": 4195,
      "ĠKata": 4196,
      "ĠKaca": 4197,
      "ĠKualitas": 4198,
      "ĠKombinasi": 4199,
      "ĠKarb": 4200,
      "ĠKabut": 4201,
      "ĠKalender": 4202,
      "ĠKolon": 4203,
      "ĠKetidak": 4204,
      "ĠKekurangan": 4205,
      "ampaan": 4206,
      "ampurkan": 4207,
      "ensial": 4208,
      "tifeed": 4209,
      "upat": 4210,
      "tri": 4211,
      "Ġadil": 4212,
      "Ġadakah": 4213,
      "Ġadopsi": 4214,
      "udi": 4215,
      "udat": 4216,
      "ujuk": 4217,
      "ujuan": 4218,
      "omata": 4219,
      "umbian": 4220,
      "Ġoranye": 4221,
      "ĠPeningkatan": 4222,
      "ĠPenerapan": 4223,
      "ĠPencat": 4224,
      "ĠPenundaan": 4225,
      "ĠPenilaian": 4226,
      "Ġpenyebarannya": 4227,
      "orax": 4228,
      "atoda": 4229,
      "Ġsayuran": 4230,
      "ĠTekanan": 4231,
      "ĠTerus": 4232,
      "ĠToksin": 4233,
      "ĠTabung": 4234,
      "ĠTOR": 4235,
      "ĠThail": 4236,
      "ĠTiong": 4237,
      "ĠTenggara": 4238,
      "Ġnasi": 4239,
      "Ġnode": 4240,
      "Ġnimb": 4241,
      "Ġnilai": 4242,
      "Ġnotif": 4243,
      "egam": 4244,
      "egara": 4245,
      "egatif": 4246,
      "egera": 4247,
      "ips": 4248,
      "Ġviride": 4249,
      "Ġpetunjuk": 4250,
      "ĠIa": 4251,
      "ĠIdentifikasi": 4252,
      "sisten": 4253,
      "atanya": 4254,
      "Ġtinggal": 4255,
      "Ġsebanyak": 4256,
      "Ġseburuk": 4257,
      "Ġbening": 4258,
      "ĠData": 4259,
      "ĠDosis": 4260,
      "ĠDinding": 4261,
      "ĠDukungan": 4262,
      "Ġgenus": 4263,
      "Ġsiap": 4264,
      "Ġsinte": 4265,
      "Ġsintesis": 4266,
      "Ġsimulasi": 4267,
      "Ġsilang": 4268,
      "Ġefeknya": 4269,
      "Ġefektor": 4270,
      "ayat": 4271,
      "ayuan": 4272,
      "Ġpatogenik": 4273,
      "Ġpatogennya": 4274,
      "Ġaktiv": 4275,
      "ĠRp": 4276,
      "ĠRapat": 4277,
      "ĠRutin": 4278,
      "ĠRekayasa": 4279,
      "ĠRNA": 4280,
      "ĠRhiz": 4281,
      "ĠRelati": 4282,
      "Ġkelangk": 4283,
      "Ġkelayuan": 4284,
      "Ġpanduan": 4285,
      "Ġkeras": 4286,
      "Ġselub": 4287,
      "Ġselera": 4288,
      "Ġselektif": 4289,
      "Ġberbagi": 4290,
      "Ġberbiaya": 4291,
      "Ġsehari": 4292,
      "Ġmenghind": 4293,
      "Ġmenghanc": 4294,
      "Ġmenghisap": 4295,
      "Ġmenghilangkan": 4296,
      "Ġmenghentikan": 4297,
      "Ġmenghabiskan": 4298,
      "esifik": 4299,
      "indak": 4300,
      "indle": 4301,
      "indigenous": 4302,
      "Ġmencuci": 4303,
      "Ġketupat": 4304,
      "Ġlingkaran": 4305,
      "ĠInduksi": 4306,
      "ĠInse": 4307,
      "ĠInfr": 4308,
      "ĠInvestasi": 4309,
      "ĠInggr": 4310,
      "ĠInsentif": 4311,
      "ĠMengurangi": 4312,
      "ĠMengaj": 4313,
      "ĠMengikuti": 4314,
      "ĠMenghindari": 4315,
      "ĠMengorgan": 4316,
      "ĠCara": 4317,
      "ĠCuaca": 4318,
      "ĠCiri": 4319,
      "ĠCha": 4320,
      "ĠCili": 4321,
      "ĠCipratan": 4322,
      "ĠCurvularia": 4323,
      "ĠCiherang": 4324,
      "endong": 4325,
      "ica": 4326,
      "Ġbercaknya": 4327,
      "ĠPenyuluh": 4328,
      "ĠPenyinaran": 4329,
      "ĠPenyuluhan": 4330,
      "ĠPenyiraman": 4331,
      "Ġmemperoleh": 4332,
      "Ġmempertahankan": 4333,
      "Ġantarn": 4334,
      "Ġproyeksi": 4335,
      "Ġprotektan": 4336,
      "Ġmeranc": 4337,
      "Ġmerotasi": 4338,
      "Ġmerosot": 4339,
      "Ġmeremehkan": 4340,
      "Ġmerujuk": 4341,
      "Ġmeratanya": 4342,
      "ĠPengeringan": 4343,
      "ĠPengembangan": 4344,
      "ĠPengambilan": 4345,
      "ĠPenginderaan": 4346,
      "Ġekologi": 4347,
      "Ġekonom": 4348,
      "Ġditran": 4349,
      "Ġditembus": 4350,
      "Ġditumbuh": 4351,
      "Ġditangkap": 4352,
      "Ġditutup": 4353,
      "Ġditerbangkan": 4354,
      "oditas": 4355,
      "odial": 4356,
      "obaan": 4357,
      "oblas": 4358,
      "anjur": 4359,
      "Ġketahanannya": 4360,
      "choline": 4361,
      "ĠJaya": 4362,
      "ĠJaringan": 4363,
      "Ġdisaran": 4364,
      "Ġdisesuaikan": 4365,
      "Ġdisampaikan": 4366,
      "Ġdiskusi": 4367,
      "Ġdisebarkan": 4368,
      "uali": 4369,
      "Ġpoliklik": 4370,
      "Ġrefl": 4371,
      "Ġrefugi": 4372,
      "ĠNama": 4373,
      "ĠNutfah": 4374,
      "ĠNegatif": 4375,
      "ĠHanya": 4376,
      "ĠHayati": 4377,
      "ĠHindari": 4378,
      "ĠHarus": 4379,
      "ĠHashi": 4380,
      "Ġkestabil": 4381,
      "Ġterbesar": 4382,
      "Ġterbuka": 4383,
      "Ġterbakar": 4384,
      "Ġterbiasa": 4385,
      "Ġprinsip": 4386,
      "Ġmusiman": 4387,
      "Ġkemarau": 4388,
      "Ġkemiskin": 4389,
      "ĠYangtz": 4390,
      "Ġberkualitas": 4391,
      "Ġberkisar": 4392,
      "Ġberkembangbi": 4393,
      "Ġdikaj": 4394,
      "Ġdiklasifikasikan": 4395,
      "Ġpemicu": 4396,
      "Ġpemutusan": 4397,
      "Ġpemurn": 4398,
      "Ġpemanfaatan": 4399,
      "Ġpemelih": 4400,
      "ganik": 4401,
      "Ġdibentuk": 4402,
      "Ġdibaj": 4403,
      "Ġdibiarkan": 4404,
      "Ġdibenarkan": 4405,
      "utihan": 4406,
      "Ġaerasi": 4407,
      "Ġberlapis": 4408,
      "Ġberlubang": 4409,
      "Ġjarum": 4410,
      "ific": 4411,
      "preventif": 4412,
      "prinsip": 4413,
      "ĠGabah": 4414,
      "ĠGPCR": 4415,
      "ĠGlobal": 4416,
      "ĠGunakan": 4417,
      "ĠGading": 4418,
      "ĠGulma": 4419,
      "ĠGejalanya": 4420,
      "Ġpembawa": 4421,
      "Ġpemboros": 4422,
      "Ġpembuluh": 4423,
      "Ġpemberian": 4424,
      "Ġpembakaran": 4425,
      "Ġpembasah": 4426,
      "Ġpembelaj": 4427,
      "Ġsekali": 4428,
      "Ġsekalig": 4429,
      "Ġsekilas": 4430,
      "uransi": 4431,
      "Ġanak": 4432,
      "Ġantijamur": 4433,
      "Ġantifeed": 4434,
      "Ġsumbernya": 4435,
      "angsari": 4436,
      "Ġkepala": 4437,
      "Ġkeputihan": 4438,
      "tanaman": 4439,
      "tanpa": 4440,
      "ĠLedakan": 4441,
      "ĠLiar": 4442,
      "ĠLembaga": 4443,
      "ĠLeon": 4444,
      "ĠLolium": 4445,
      "ĠLembah": 4446,
      "ĠLingkungan": 4447,
      "Ġmasam": 4448,
      "Ġmassal": 4449,
      "Ġmasyarak": 4450,
      "Ġkekuningan": 4451,
      "Ġkekelir": 4452,
      "Ġirrig": 4453,
      "Ġmikrokonidia": 4454,
      "Ġmikrosko": 4455,
      "Ġmikrocon": 4456,
      "ĠPerbedaan": 4457,
      "ĠPerekat": 4458,
      "ĠPerhatikan": 4459,
      "ĠPerdagangan": 4460,
      "ĠPergiliran": 4461,
      "ĠPerpindahan": 4462,
      "ĠPersemaian": 4463,
      "ĠPertumbuhan": 4464,
      "ĠPeralihan": 4465,
      "ĠPeriksa": 4466,
      "ĠPerilaku": 4467,
      "Ġtetangga": 4468,
      "Ġterluar": 4469,
      "Ġterlanjur": 4470,
      "ĠSelama": 4471,
      "osfor": 4472,
      "osfer": 4473,
      "osperma": 4474,
      "ĠVariasi": 4475,
      "ĠVisual": 4476,
      "Ġdinas": 4477,
      "Ġdinilai": 4478,
      "Ġdinamika": 4479,
      "Ġmendasar": 4480,
      "Ġmendekati": 4481,
      "Ġmendiagnosis": 4482,
      "Ġmendasari": 4483,
      "Ġmendapatkan": 4484,
      "eknologi": 4485,
      "Ġbertugas": 4486,
      "Ġbertemu": 4487,
      "Ġbertujuan": 4488,
      "Ġbertindak": 4489,
      "Ġberaturan": 4490,
      "Ġprakiraan": 4491,
      "osint": 4492,
      "Ġalel": 4493,
      "Ġalgor": 4494,
      "Ġalbescens": 4495,
      "Ġharian": 4496,
      "omposisi": 4497,
      "ĠFokus": 4498,
      "ĠFenomena": 4499,
      "ĠFosfor": 4500,
      "Ġbahaya": 4501,
      "Ġlokus": 4502,
      "Ġtersebar": 4503,
      "Ġhidrofob": 4504,
      "Ġhidatoda": 4505,
      "Ġmemungkinkannya": 4506,
      "Ġpelaks": 4507,
      "Ġmengendap": 4508,
      "Ġharpin": 4509,
      "Ġharzian": 4510,
      "Ġeksotik": 4511,
      "Ġeksplor": 4512,
      "Ġekstensif": 4513,
      "Ġeksudat": 4514,
      "ymerase": 4515,
      "Ġ14": 4516,
      "Ġ15": 4517,
      "Ġ1000": 4518,
      "Ġ1859": 4519,
      "Ġpendek": 4520,
      "Ġpendegradasi": 4521,
      "Ġdipantau": 4522,
      "Ġdipahami": 4523,
      "Ġdipindahkan": 4524,
      "Ġdipastikan": 4525,
      "Ġdipulih": 4526,
      "Ġdipatahkan": 4527,
      "Ġdipanen": 4528,
      "Ġdipakai": 4529,
      "Ġdipurif": 4530,
      "Ġdipilih": 4531,
      "ĠBerapa": 4532,
      "ĠBerimbang": 4533,
      "ĠBerdasarkan": 4534,
      "ĠBerbagai": 4535,
      "ĠBerlebihan": 4536,
      "ĠBersama": 4537,
      "Ġinangnya": 4538,
      "Ġorganisasi": 4539,
      "Ġoportun": 4540,
      "Ġkecukup": 4541,
      "Ġkecuali": 4542,
      "ĠIndia": 4543,
      "ĠIndikasi": 4544,
      "ĠIndikator": 4545,
      "Ġantaranya": 4546,
      "efinisi": 4547,
      "seukuran": 4548,
      "ĠOPT": 4549,
      "Ġarak": 4550,
      "Ġarti": 4551,
      "Ġareal": 4552,
      "Ġartinya": 4553,
      "Ġsemiper": 4554,
      "Ġsemuanya": 4555,
      "Ġkualitasnya": 4556,
      "Ġperspek": 4557,
      "Ġpersawahan": 4558,
      "Ġrendaman": 4559,
      "ternak": 4560,
      "ternate": 4561,
      "ternaria": 4562,
      "Ġmembuatnya": 4563,
      "Ġ24": 4564,
      "Ġ25": 4565,
      "Ġagresi": 4566,
      "introduksi": 4567,
      "intensitas": 4568,
      "Ġbasa": 4569,
      "Ġkehijau": 4570,
      "Ġkehidup": 4571,
      "Ġkehampaan": 4572,
      "Ġnutrisinya": 4573,
      "Ġglobalisasi": 4574,
      "ĠUng": 4575,
      "ĠUmum": 4576,
      "ĠUdara": 4577,
      "ĠUmur": 4578,
      "ĠUtri": 4579,
      "Ġstandar": 4580,
      "Ġstudi": 4581,
      "Ġstomata": 4582,
      "Ġkomposisi": 4583,
      "Ġkompetisi": 4584,
      "Ġlanjutan": 4585,
      "Ġinstansi": 4586,
      "Ġinspeksi": 4587,
      "Ġintensif": 4588,
      "Ġintegr": 4589,
      "Ġinformasinya": 4590,
      "Ġfoto": 4591,
      "Ġfotosint": 4592,
      "Ġmanajemen": 4593,
      "Ġterkena": 4594,
      "Ġterkelola": 4595,
      "ĠSeiring": 4596,
      "ĠKelompok": 4597,
      "ĠKelemahan": 4598,
      "ĠKelaparan": 4599,
      "Ġkesehatannya": 4600,
      "Ġkemampuannya": 4601,
      "Ġkhasnya": 4602,
      "Ġaskospora": 4603,
      "Ġaspir": 4604,
      "Ġlaba": 4605,
      "Ġlabel": 4606,
      "ĠDiagnosis": 4607,
      "ohidrat": 4608,
      "ohilum": 4609,
      "overhe": 4610,
      "ovorax": 4611,
      "Ġskler": 4612,
      "Ġskema": 4613,
      "Ġkeberagaman": 4614,
      "Ġdiminimal": 4615,
      "Ġdimainkan": 4616,
      "Ġdiperhatikan": 4617,
      "Ġdipertahankan": 4618,
      "Ġdiperbanyak": 4619,
      "Ġdiperkir": 4620,
      "Ġberpola": 4621,
      "ontal": 4622,
      "Ġgelendong": 4623,
      "ĠKesehatan": 4624,
      "ĠKesepakatan": 4625,
      "Ġbijak": 4626,
      "Ġmerusaknya": 4627,
      "Ġtahunan": 4628,
      "Ġtahunnya": 4629,
      "Ġepidermis": 4630,
      "ĠELIS": 4631,
      "ĠEnzim": 4632,
      "ĠExser": 4633,
      "Ġendosperma": 4634,
      "ancur": 4635,
      "Ġtransp": 4636,
      "Ġtransisi": 4637,
      "Ġsenescens": 4638,
      "Ġbulan": 4639,
      "astian": 4640,
      "Ġindikasi": 4641,
      "Ġindustr": 4642,
      "Ġindiv": 4643,
      "Ġindigenous": 4644,
      "Ġindica": 4645,
      "ĠPemantauan": 4646,
      "ĠPemanfaatan": 4647,
      "ĠMenanam": 4648,
      "ĠMenerapkan": 4649,
      "ĠMenjaga": 4650,
      "ĠMenetapkan": 4651,
      "ĠMeningkatkan": 4652,
      "Ġseluruhnya": 4653,
      "kontaminasi": 4654,
      "Ġepidemiologi": 4655,
      "Ġkerentanannya": 4656,
      "octon": 4657,
      "oceras": 4658,
      "spesifik": 4659,
      "spindle": 4660,
      "Ġ42": 4661,
      "Ġembrio": 4662,
      "Ġpencahaya": 4663,
      "tilines": 4664,
      "Ġterkontrol": 4665,
      "Ġbermigrasi": 4666,
      "Ġintervensi": 4667,
      "ĠSistemik": 4668,
      "Ġmengeringkan": 4669,
      "Ġmengeringnya": 4670,
      "Ġfisik": 4671,
      "Ġfisiologi": 4672,
      "Ġmasuknya": 4673,
      "ontohan": 4674,
      "beras": 4675,
      "bergaris": 4676,
      "berkisar": 4677,
      "ĠWheat": 4678,
      "ĠWetting": 4679,
      "Ġsampingan": 4680,
      "Ġkolektif": 4681,
      "Ġkoleop": 4682,
      "Ġkandang": 4683,
      "Ġdihilangkan": 4684,
      "Ġdihitung": 4685,
      "Ġterdapat": 4686,
      "Ġterdeteksi": 4687,
      "Ġterdepan": 4688,
      "Ġterdokument": 4689,
      "Ġterdefinisi": 4690,
      "Ġmemercik": 4691,
      "Ġhampa": 4692,
      "Ġhampir": 4693,
      "Ġsesegera": 4694,
      "ĠSinyal": 4695,
      "ĠStres": 4696,
      "ĠStreptomyc": 4697,
      "Ġmengakuisi": 4698,
      "Ġlegum": 4699,
      "ĠKonidia": 4700,
      "ĠKonsistensi": 4701,
      "ĠKonfirmasi": 4702,
      "ĠTradisi": 4703,
      "ĠTerutama": 4704,
      "ĠTerinfeksi": 4705,
      "Ġsinonim": 4706,
      "153": 4707,
      "Ġ66": 4708,
      "Ġsaluran": 4709,
      "Ġsalisilat": 4710,
      "Ġsetengah": 4711,
      "Ġbaku": 4712,
      "Ġbakal": 4713,
      "Ġbawahnya": 4714,
      "Ġkuantitas": 4715,
      "tible": 4716,
      "ĠAkar": 4717,
      "ĠAktif": 4718,
      "Ġflora": 4719,
      "Ġfluktu": 4720,
      "Ġflagelin": 4721,
      "Ġkonservasi": 4722,
      "Ġvirulensinya": 4723,
      "ĠOrganik": 4724,
      "Ġstabilitas": 4725,
      "Ġkenaikan": 4726,
      "ĠPrinsip": 4727,
      "irannya": 4728,
      "Ġnekrosis": 4729,
      "Ġnekrotrofik": 4730,
      "Ġmemperluas": 4731,
      "Ġantagonistik": 4732,
      "Ġterbentuknya": 4733,
      "Ġberkurangnya": 4734,
      "Ġavenae": 4735,
      "abilitasnya": 4736,
      "kematian": 4737,
      "kemarau": 4738,
      "lex": 4739,
      "miah": 4740,
      "Ġ33": 4741,
      "Ġtargetnya": 4742,
      "Ġtoleran": 4743,
      "Ġbelajar": 4744,
      "Ġbelalang": 4745,
      "Ġkebeng": 4746,
      "Ġkebias": 4747,
      "Ġkomoditas": 4748,
      "Ġdicampur": 4749,
      "Ġdicampurkan": 4750,
      "ususnya": 4751,
      "ĠPembersihan": 4752,
      "ĠPembenah": 4753,
      "ĠSebaiknya": 4754,
      "ĠSebagian": 4755,
      "ĠAsd": 4756,
      "ĠAskospora": 4757,
      "ĠAscomyc": 4758,
      "ĠAsuransi": 4759,
      "ĠMelalui": 4760,
      "ĠMeliputi": 4761,
      "Ġpenghujan": 4762,
      "Ġpenghisap": 4763,
      "Ġpenghisapan": 4764,
      "Ġpenghancur": 4765,
      "Ġbiotik": 4766,
      "Ġbiofil": 4767,
      "ĠPendidikan": 4768,
      "Ġevaluasi": 4769,
      "ĠIkegam": 4770,
      "Ġ1955": 4771,
      "Ġ1943": 4772,
      "Ġ1963": 4773,
      "Ġ1996": 4774,
      "ĠMenyebabkan": 4775,
      "ĠMenyesuaikan": 4776,
      "ĠMenyemprot": 4777,
      "ĠMenyelesaikan": 4778,
      "Ġsalinan": 4779,
      "Ġbakterisidal": 4780,
      "Ġtubuhnya": 4781,
      "khususnya": 4782,
      "miselium": 4783,
      "ographel": 4784,
      "riptif": 4785,
      "thm": 4786,
      "Ġ96": 4787,
      "Ġalaminya": 4788,
      "Ġplastik": 4789,
      "Ġplasma": 4790,
      "Ġplasmod": 4791,
      "Ġderas": 4792,
      "Ġmultispektral": 4793,
      "Ġsukun": 4794,
      "Ġsterilisasi": 4795,
      "Ġsosialisasi": 4796,
      "Ġpenerapannya": 4797,
      "Ġkini": 4798,
      "Ġterparah": 4799,
      "Ġterputus": 4800,
      "Ġterpapar": 4801,
      "Ġterjadinya": 4802,
      "Ġberfotosintesis": 4803,
      "Ġsejak": 4804,
      "Ġsejarah": 4805,
      "Ġsejumlah": 4806,
      "ĠProses": 4807,
      "ĠProyeksi": 4808,
      "ĠProtektan": 4809,
      "ĠStandar": 4810,
      "Ġreplikasi": 4811,
      "ĠAlami": 4812,
      "ĠAlternatif": 4813,
      "ĠAlternaria": 4814,
      "Ġmengkombinasikan": 4815,
      "Ġmengkolon": 4816,
      "Ġmengklasifikasikan": 4817,
      "Ġmengantisip": 4818,
      "Ġmenginvag": 4819,
      "Ġgilirannya": 4820,
      "ilitasnya": 4821,
      "ĠMAT": 4822,
      "ĠMeremehkan": 4823,
      "ĠMembeli": 4824,
      "ĠMikrokonidia": 4825,
      "Ġcercosp": 4826,
      "Ġkedaulatan": 4827,
      "Ġketidakseimbangan": 4828,
      "ĠDampaknya": 4829,
      "Ġgenomik": 4830,
      "Ġgenomiknya": 4831,
      "Ġsimetris": 4832,
      "Ġakhirnya": 4833,
      "ĠReaction": 4834,
      "koordinat": 4835,
      "Ġpredisposisi": 4836,
      "Ġkemerosot": 4837,
      "Ġpemuliaan": 4838,
      "Ġmetabolit": 4839,
      "Ġkhususnya": 4840,
      "Ġagronom": 4841,
      "Ġkonsumsi": 4842,
      "ĠAdaptifMeng": 4843,
      "biasanya": 4844,
      "flag": 4845,
      "kuantitas": 4846,
      "kuantitatif": 4847,
      "otium": 4848,
      "skopis": 4849,
      "Ġilmu": 4850,
      "Ġilmiah": 4851,
      "Ġimpor": 4852,
      "Ġimplikasi": 4853,
      "Ġpartisip": 4854,
      "Ġparasitis": 4855,
      "Ġpintu": 4856,
      "Ġpintar": 4857,
      "Ġpinggir": 4858,
      "Ġpinggiran": 4859,
      "Ġdurasi": 4860,
      "Ġdurabilitasnya": 4861,
      "Ġmonokultur": 4862,
      "Ġmonoceras": 4863,
      "Ġminimnya": 4864,
      "Ġtipe": 4865,
      "Ġtipis": 4866,
      "Ġtanggal": 4867,
      "Ġtangguh": 4868,
      "Ġsuspensi": 4869,
      "Ġsuscep": 4870,
      "Ġsensitif": 4871,
      "Ġsensing": 4872,
      "Ġsempit": 4873,
      "Ġsempurn": 4874,
      "Ġlengkap": 4875,
      "Ġlengket": 4876,
      "Ġtertinggi": 4877,
      "Ġtertinggal": 4878,
      "Ġhabang": 4879,
      "Ġhabitat": 4880,
      "Ġhiperspektral": 4881,
      "Ġhipersensi": 4882,
      "Ġpercobaan": 4883,
      "Ġpercontohan": 4884,
      "Ġpersisten": 4885,
      "Ġpersistens": 4886,
      "Ġgejalan": 4887,
      "Ġgejalanya": 4888,
      "Ġfrekuensi": 4889,
      "Ġfragmen": 4890,
      "ĠMemicu": 4891,
      "ĠMemahami": 4892,
      "ĠMonokultur": 4893,
      "ĠMonographel": 4894,
      "ĠMencatat": 4895,
      "ĠMencampur": 4896,
      "Ġmenyadari": 4897,
      "Ġmenyadarkan": 4898,
      "Ġbiotrofik": 4899,
      "Ġbioteknologi": 4900,
      "ĠIRRI": 4901,
      "ĠIstilah": 4902,
      "ĠIsolasi": 4903,
      "ĠDrainase": 4904,
      "ĠDrying": 4905,
      "ĠDiserap": 4906,
      "ĠDiseminasi": 4907,
      "ĠChain": 4908,
      "ĠChina": 4909,
      "Ġditekankan": 4910,
      "Ġrealistis": 4911,
      "ĠHasilnya": 4912,
      "ĠGenangan": 4913,
      "Ġmengenalkan": 4914,
      "ĠBerkualitas": 4915,
      "ĠBerkelanjutan": 4916,
      "Ġkompatibel": 4917,
      "Ġkompatibilitasnya": 4918,
      "Ġtranslokasinya": 4919,
      "Ġmakroskopis": 4920,
      "Ġmultiplikasi": 4921,
      "Ġmultiplex": 4922,
      "Ġketidakpatuhan": 4923,
      "Ġketidakpastian": 4924,
      "Ġsimpan": 4925,
      "Ġsimpodial": 4926,
      "Ġkotoran": 4927,
      "Ġkaitannya": 4928,
      "Ġbiosynthesis": 4929,
      "Ġbiosynthetic": 4930,
      "078": 4931,
      "2002": 4932,
      "25551": 4933,
      "AVR": 4934,
      "AWD": 4935,
      "Alternate": 4936,
      "Azadir": 4937,
      "Kontak": 4938,
      "Oryzae": 4939,
      "Polymerase": 4940,
      "Wild": 4941,
      "cadian": 4942,
      "collar": 4943,
      "circadian": 4944,
      "eyespot": 4945,
      "eomorf": 4946,
      "harga": 4947,
      "hampa": 4948,
      "kacangan": 4949,
      "kualitatif": 4950,
      "ketersediaan": 4951,
      "klorida": 4952,
      "laba": 4953,
      "legum": 4954,
      "melanin": 4955,
      "menghentikan": 4956,
      "monogenik": 4957,
      "multilines": 4958,
      "mendekati": 4959,
      "ofuram": 4960,
      "poligenik": 4961,
      "panicle": 4962,
      "remote": 4963,
      "race": 4964,
      "sebelum": 4965,
      "selain": 4966,
      "segitiga": 4967,
      "slokasikan": 4968,
      "tahun": 4969,
      "toleran": 4970,
      "warni": 4971,
      "Ġeradikasi": 4972,
      "Ġelips": 4973,
      "Ġutamanya": 4974,
      "Ġesensial": 4975,
      "Ġumbi": 4976,
      "Ġizin": 4977,
      "Ġoksiklorida": 4978,
      "Ġamino": 4979,
      "Ġxilem": 4980,
      "anaannya": 4981,
      "eniformis": 4982,
      "Ġpakaian": 4983,
      "Ġpusat": 4984,
      "Ġpotongan": 4985,
      "Ġpastinya": 4986,
      "Ġpedesaan": 4987,
      "Ġponsel": 4988,
      "Ġdemografis": 4989,
      "Ġdingin": 4990,
      "Ġdekomposisi": 4991,
      "Ġdrone": 4992,
      "Ġdesain": 4993,
      "Ġdemplot": 4994,
      "Ġdeskriptif": 4995,
      "Ġmateri": 4996,
      "Ġminor": 4997,
      "Ġmebuat": 4998,
      "Ġmikotoksin": 4999,
      "Ġmachine": 5000,
      "Ġmandiri": 5001,
      "Ġminggu": 5002,
      "Ġtapi": 5003,
      "Ġteleomorf": 5004,
      "Ġtunggal": 5005,
      "Ġtutul": 5006,
      "Ġtegangan": 5007,
      "Ġtumpangsari": 5008,
      "Ġtreatment": 5009,
      "Ġsamar": 5010,
      "Ġsasaran": 5011,
      "Ġsorokinian": 5012,
      "Ġsabit": 5013,
      "Ġsembarangan": 5014,
      "Ġspermatia": 5015,
      "Ġsentral": 5016,
      "Ġsendiri": 5017,
      "Ġsensor": 5018,
      "Ġshift": 5019,
      "Ġbidang": 5020,
      "Ġbegitu": 5021,
      "Ġbutir": 5022,
      "Ġpenumpukan": 5023,
      "Ġmencakup": 5024,
      "Ġmenambahkan": 5025,
      "Ġmenularkannya": 5026,
      "Ġmenutupi": 5027,
      "Ġkorelasi": 5028,
      "Ġkuratif": 5029,
      "Ġkusam": 5030,
      "Ġkutu": 5031,
      "Ġkantong": 5032,
      "Ġkacang": 5033,
      "Ġkunci": 5034,
      "Ġkebasahan": 5035,
      "Ġkarbohidrat": 5036,
      "Ġklasik": 5037,
      "Ġkoordinasi": 5038,
      "Ġkalori": 5039,
      "Ġlonjong": 5040,
      "Ġlilin": 5041,
      "Ġlayanan": 5042,
      "Ġlendir": 5043,
      "Ġlancar": 5044,
      "Ġlicheniformis": 5045,
      "Ġpenyerbuk": 5046,
      "Ġpenyimpan": 5047,
      "Ġdiarahkan": 5048,
      "Ġdifenokonazol": 5049,
      "Ġterperangkap": 5050,
      "Ġterencana": 5051,
      "Ġterjangkau": 5052,
      "Ġberumur": 5053,
      "Ġbertukar": 5054,
      "Ġberembun": 5055,
      "Ġberguna": 5056,
      "Ġberujung": 5057,
      "Ġberkinerja": 5058,
      "Ġberevolusi": 5059,
      "Ġbergerak": 5060,
      "Ġberjauhan": 5061,
      "Ġbernoda": 5062,
      "etomium": 5063,
      "ĠBisakah": 5064,
      "ĠBengal": 5065,
      "ĠBalimau": 5066,
      "Ġmematikan": 5067,
      "Ġmemegang": 5068,
      "Ġholoblas": 5069,
      "Ġhomogen": 5070,
      "Ġhifa": 5071,
      "Ġhaploid": 5072,
      "Ġhorizontal": 5073,
      "Ġinisiasi": 5074,
      "Ġinduktor": 5075,
      "Ġinovatif": 5076,
      "Ġinvasif": 5077,
      "Ġinfkesi": 5078,
      "Ġinkubasi": 5079,
      "Ġpertukaran": 5080,
      "Ġpersistensinya": 5081,
      "Ġperiodik": 5082,
      "Ġperitesium": 5083,
      "Ġsederhana": 5084,
      "ĠPantai": 5085,
      "ĠPenting": 5086,
      "ĠPutih": 5087,
      "ĠPrancis": 5088,
      "ĠPelatihan": 5089,
      "ĠPlasma": 5090,
      "ĠParameter": 5091,
      "ĠSesuai": 5092,
      "ĠSejauh": 5093,
      "ĠSuplai": 5094,
      "ĠSerangga": 5095,
      "ĠSosialisasi": 5096,
      "ĠSierra": 5097,
      "Ġregulasi": 5098,
      "Ġrimbun": 5099,
      "Ġrizosfer": 5100,
      "Ġratusan": 5101,
      "Ġrhythm": 5102,
      "Ġriwayat": 5103,
      "ĠAfrika": 5104,
      "ĠAcidovorax": 5105,
      "Ġmengawinkan": 5106,
      "Ġmengantasi": 5107,
      "Ġmengkonfirmasi": 5108,
      "Ġmenganggapnya": 5109,
      "Ġmenggenangi": 5110,
      "Ġmenggantikan": 5111,
      "Ġmengintegrasikan": 5112,
      "Ġmengkoordinasikan": 5113,
      "Ġvector": 5114,
      "Ġventilasi": 5115,
      "Ġvalidasinya": 5116,
      "persistent": 5117,
      "Ġgigitan": 5118,
      "Ġgranul": 5119,
      "Ġgerimis": 5120,
      "Ġfoxtail": 5121,
      "ĠMalaysia": 5122,
      "Ġcampuran": 5123,
      "Ġcoba": 5124,
      "Ġcendawan": 5125,
      "Ġmenyediakan": 5126,
      "Ġmenyerupai": 5127,
      "Ġlearning": 5128,
      "Ġkegiatan": 5129,
      "Ġkeduanya": 5130,
      "Ġkeunggulan": 5131,
      "Ġkeanekaragaman": 5132,
      "Ġkeemasan": 5133,
      "Ġmembayar": 5134,
      "Ġmemblokir": 5135,
      "Ġmembenamkan": 5136,
      "achta": 5137,
      "Ġmelepuh": 5138,
      "Ġmelewati": 5139,
      "Ġspecific": 5140,
      "Ġkontributor": 5141,
      "ĠKehadiran": 5142,
      "ĠKomunal": 5143,
      "ĠKeduanya": 5144,
      "ĠKarbofuram": 5145,
      "ĠKoloni": 5146,
      "ĠKetidakseimbangan": 5147,
      "ĠPencatatan": 5148,
      "ĠThailand": 5149,
      "ĠTiongkok": 5150,
      "Ġnimba": 5151,
      "Ġnotifikasi": 5152,
      "Ġsintetis": 5153,
      "Ġaktivasi": 5154,
      "ĠRhizocton": 5155,
      "ĠRelatives": 5156,
      "Ġkelangkaan": 5157,
      "Ġselubung": 5158,
      "Ġmenghindarkan": 5159,
      "Ġmenghancurkan": 5160,
      "ĠInsect": 5161,
      "ĠInfrastruktur": 5162,
      "ĠInggris": 5163,
      "ĠMengajukan": 5164,
      "ĠMengorganisir": 5165,
      "ĠChaetomium": 5166,
      "ĠCiliwung": 5167,
      "Ġantarnegara": 5168,
      "Ġmerancang": 5169,
      "Ġekonominya": 5170,
      "Ġditranslokasikan": 5171,
      "Ġditumbuhi": 5172,
      "Ġdisarankan": 5173,
      "Ġreflektansi": 5174,
      "Ġrefugia": 5175,
      "ĠHashioka": 5176,
      "Ġkestabilan": 5177,
      "Ġkemiskinan": 5178,
      "ĠYangtze": 5179,
      "Ġberkembangbiak": 5180,
      "Ġdikaji": 5181,
      "Ġpemurnian": 5182,
      "Ġpemeliharaan": 5183,
      "Ġdibajak": 5184,
      "ĠGlobalisasi": 5185,
      "Ġpemborosan": 5186,
      "Ġpembelajaran": 5187,
      "Ġsekaligus": 5188,
      "Ġantifeedant": 5189,
      "ĠLeone": 5190,
      "Ġmasyarakat": 5191,
      "Ġkekeliruan": 5192,
      "Ġirrigation": 5193,
      "Ġmikroskop": 5194,
      "Ġmikroconidia": 5195,
      "Ġalgoritma": 5196,
      "Ġhidrofobik": 5197,
      "Ġpelaksanaannya": 5198,
      "Ġharzianum": 5199,
      "Ġeksplorasi": 5200,
      "Ġdipulihkan": 5201,
      "Ġdipurifikasi": 5202,
      "Ġoportunistik": 5203,
      "Ġkecukupan": 5204,
      "ĠIndikatornya": 5205,
      "Ġsemipersisten": 5206,
      "Ġperspektif": 5207,
      "Ġagresif": 5208,
      "Ġkehijauan": 5209,
      "Ġkehidupan": 5210,
      "ĠUnggul": 5211,
      "ĠUmumnya": 5212,
      "Ġintegritas": 5213,
      "Ġfotosintat": 5214,
      "Ġaspirasi": 5215,
      "overhead": 5216,
      "Ġsklerotium": 5217,
      "Ġdiminimalisasi": 5218,
      "Ġdiperkirakan": 5219,
      "ĠELISA": 5220,
      "ĠExserohilum": 5221,
      "Ġtranspor": 5222,
      "Ġindustri": 5223,
      "Ġindividu": 5224,
      "Ġpencahayaan": 5225,
      "Ġkoleoptil": 5226,
      "Ġterdokumentasi": 5227,
      "Ġmemercikkan": 5228,
      "ĠStreptomyces": 5229,
      "Ġmengakuisisi": 5230,
      "ĠTradisional": 5231,
      "Ġfluktuasi": 5232,
      "Ġkebiasaan": 5233,
      "ĠAscomycota": 5234,
      "Ġbiofilm": 5235,
      "Ġplasmodesmata": 5236,
      "Ġmengkolonisasi": 5237,
      "Ġmengantisipasi": 5238,
      "Ġmenginvaginasi": 5239,
      "Ġcercospora": 5240,
      "Ġkemerosotan": 5241,
      "Ġagronomis": 5242,
      "ĠAdaptifMenggunakan": 5243,
      "Ġpartisipatif": 5244,
      "Ġparasitisme": 5245,
      "Ġsusceptible": 5246,
      "Ġsempurna": 5247,
      "Ġhipersensitif": 5248,
      "ĠMonographella": 5249,
      "Azadirachta": 5250,
      "Ġsorokiniana": 5251,
      "Ġholoblastik": 5252,
      "ĠRhizoctonia": 5253
    },
    "merges": [
      [
        "a",
        "n"
      ],
      [
        "e",
        "n"
      ],
      [
        "e",
        "r"
      ],
      [
        "Ġ",
        "p"
      ],
      [
        "Ġ",
        "d"
      ],
      [
        "Ġ",
        "m"
      ],
      [
        "s",
        "i"
      ],
      [
        "a",
        "t"
      ],
      [
        "Ġ",
        "t"
      ],
      [
        "Ġ",
        "s"
      ],
      [
        "i",
        "n"
      ],
      [
        "a",
        "l"
      ],
      [
        "a",
        "k"
      ],
      [
        "an",
        "g"
      ],
      [
        "Ġ",
        "b"
      ],
      [
        "u",
        "n"
      ],
      [
        "a",
        "r"
      ],
      [
        "a",
        "m"
      ],
      [
        "a",
        "h"
      ],
      [
        "a",
        "d"
      ],
      [
        "Ġp",
        "en"
      ],
      [
        "e",
        "m"
      ],
      [
        "Ġm",
        "en"
      ],
      [
        "a",
        "p"
      ],
      [
        "Ġ",
        "k"
      ],
      [
        "i",
        "t"
      ],
      [
        "k",
        "an"
      ],
      [
        "Ġ",
        "l"
      ],
      [
        "a",
        "s"
      ],
      [
        "e",
        "b"
      ],
      [
        "Ġ",
        "y"
      ],
      [
        "Ġy",
        "ang"
      ],
      [
        "in",
        "g"
      ],
      [
        "e",
        "k"
      ],
      [
        "Ġd",
        "an"
      ],
      [
        "e",
        "l"
      ],
      [
        "t",
        "i"
      ],
      [
        "a",
        "si"
      ],
      [
        "Ġpen",
        "y"
      ],
      [
        "Ġd",
        "i"
      ],
      [
        "u",
        "k"
      ],
      [
        "o",
        "r"
      ],
      [
        "Ġt",
        "er"
      ],
      [
        "Ġb",
        "er"
      ],
      [
        "un",
        "g"
      ],
      [
        "Ġp",
        "ad"
      ],
      [
        "u",
        "r"
      ],
      [
        "Ġt",
        "an"
      ],
      [
        "e",
        "t"
      ],
      [
        "a",
        "i"
      ],
      [
        "ak",
        "it"
      ],
      [
        "r",
        "o"
      ],
      [
        "Ġ",
        "B"
      ],
      [
        "Ġm",
        "em"
      ],
      [
        "Ġ",
        "j"
      ],
      [
        "g",
        "en"
      ],
      [
        "Ġpeny",
        "akit"
      ],
      [
        "i",
        "s"
      ],
      [
        "Ġtan",
        "am"
      ],
      [
        "u",
        "m"
      ],
      [
        "i",
        "k"
      ],
      [
        "y",
        "a"
      ],
      [
        "Ġ",
        "h"
      ],
      [
        "a",
        "g"
      ],
      [
        "Ġ",
        "in"
      ],
      [
        "en",
        "g"
      ],
      [
        "u",
        "s"
      ],
      [
        "Ġp",
        "er"
      ],
      [
        "o",
        "n"
      ],
      [
        "ar",
        "i"
      ],
      [
        "Ġs",
        "e"
      ],
      [
        "a",
        "u"
      ],
      [
        "Ġtanam",
        "an"
      ],
      [
        "Ġ",
        "P"
      ],
      [
        "i",
        "si"
      ],
      [
        "Ġpad",
        "a"
      ],
      [
        "o",
        "l"
      ],
      [
        "u",
        "l"
      ],
      [
        "i",
        "h"
      ],
      [
        "Ġ",
        "S"
      ],
      [
        "a",
        "b"
      ],
      [
        "Ġ",
        "at"
      ],
      [
        "ah",
        "an"
      ],
      [
        "f",
        "ek"
      ],
      [
        "Ġ",
        "r"
      ],
      [
        "ap",
        "at"
      ],
      [
        "Ġ",
        "A"
      ],
      [
        "ang",
        "an"
      ],
      [
        "u",
        "t"
      ],
      [
        "Ġat",
        "au"
      ],
      [
        "d",
        "a"
      ],
      [
        "Ġmen",
        "g"
      ],
      [
        "e",
        "s"
      ],
      [
        "Ġ",
        "v"
      ],
      [
        "Ġd",
        "apat"
      ],
      [
        "t",
        "uk"
      ],
      [
        "em",
        "b"
      ],
      [
        "al",
        "am"
      ],
      [
        "i",
        "an"
      ],
      [
        "ar",
        "a"
      ],
      [
        "p",
        "er"
      ],
      [
        "Ġd",
        "a"
      ],
      [
        "Ġ",
        "("
      ],
      [
        "Ġ",
        "g"
      ],
      [
        "i",
        "d"
      ],
      [
        "i",
        "l"
      ],
      [
        "ĠA",
        "p"
      ],
      [
        "Ġ",
        "un"
      ],
      [
        "n",
        "ya"
      ],
      [
        "u",
        "h"
      ],
      [
        "Ġda",
        "un"
      ],
      [
        "ak",
        "an"
      ],
      [
        "ing",
        "k"
      ],
      [
        "Ġpad",
        "i"
      ],
      [
        "Ġun",
        "tuk"
      ],
      [
        "am",
        "a"
      ],
      [
        "fek",
        "si"
      ],
      [
        "Ġ",
        "f"
      ],
      [
        "g",
        "a"
      ],
      [
        "i",
        "r"
      ],
      [
        "Ġ",
        "M"
      ],
      [
        "o",
        "t"
      ],
      [
        "t",
        "er"
      ],
      [
        "a",
        "an"
      ],
      [
        "Ġ",
        "c"
      ],
      [
        "Ġd",
        "alam"
      ],
      [
        "Ġs",
        "er"
      ],
      [
        "eb",
        "ih"
      ],
      [
        "Ġmen",
        "y"
      ],
      [
        "a",
        "w"
      ],
      [
        "Ġb",
        "l"
      ],
      [
        "Ġl",
        "e"
      ],
      [
        "ag",
        "ai"
      ],
      [
        "Ġk",
        "e"
      ],
      [
        "an",
        "t"
      ],
      [
        "si",
        "s"
      ],
      [
        "eb",
        "ar"
      ],
      [
        "c",
        "al"
      ],
      [
        "d",
        "al"
      ],
      [
        "as",
        "t"
      ],
      [
        "g",
        "un"
      ],
      [
        "ad",
        "ap"
      ],
      [
        "am",
        "ur"
      ],
      [
        "Ġmem",
        "b"
      ],
      [
        "eng",
        "an"
      ],
      [
        "Ġbl",
        "ast"
      ],
      [
        "an",
        "a"
      ],
      [
        "Ġpen",
        "g"
      ],
      [
        "eb",
        "ab"
      ],
      [
        "Ġl",
        "ebih"
      ],
      [
        "Ġd",
        "engan"
      ],
      [
        "ter",
        "i"
      ],
      [
        "ad",
        "i"
      ],
      [
        "gen",
        "dal"
      ],
      [
        "a",
        "c"
      ],
      [
        "Ġm",
        "el"
      ],
      [
        "a",
        "f"
      ],
      [
        "Ġd",
        "ari"
      ],
      [
        "e",
        "p"
      ],
      [
        "g",
        "i"
      ],
      [
        "per",
        "ti"
      ],
      [
        "ĠS",
        "p"
      ],
      [
        "u",
        "kan"
      ],
      [
        "ĠAp",
        "a"
      ],
      [
        "en",
        "t"
      ],
      [
        "j",
        "adi"
      ],
      [
        "Ġter",
        "h"
      ],
      [
        "Ġin",
        "i"
      ],
      [
        "cal",
        "d"
      ],
      [
        "al",
        "a"
      ],
      [
        "ap",
        "a"
      ],
      [
        "Ġj",
        "amur"
      ],
      [
        "m",
        "ana"
      ],
      [
        "at",
        "i"
      ],
      [
        "ung",
        "ro"
      ],
      [
        "Ġterh",
        "adap"
      ],
      [
        "o",
        "k"
      ],
      [
        "Ġse",
        "perti"
      ],
      [
        "agai",
        "mana"
      ],
      [
        "w",
        "n"
      ],
      [
        "ro",
        "wn"
      ],
      [
        "ingk",
        "at"
      ],
      [
        "Ġle",
        "af"
      ],
      [
        "l",
        "i"
      ],
      [
        "Ġs",
        "cald"
      ],
      [
        "et",
        "as"
      ],
      [
        "ari",
        "etas"
      ],
      [
        "e",
        "j"
      ],
      [
        "ut",
        "ama"
      ],
      [
        "Ġt",
        "ungro"
      ],
      [
        "asi",
        "l"
      ],
      [
        "id",
        "ak"
      ],
      [
        "Ġs",
        "p"
      ],
      [
        "gendal",
        "ian"
      ],
      [
        "ĠSp",
        "ot"
      ],
      [
        "a",
        "in"
      ],
      [
        "Ġk",
        "on"
      ],
      [
        "ĠB",
        "rown"
      ],
      [
        "is",
        "a"
      ],
      [
        "ĠB",
        "agaimana"
      ],
      [
        "Ġin",
        "feksi"
      ],
      [
        "ej",
        "ala"
      ],
      [
        "Ġ",
        "w"
      ],
      [
        "c",
        "ara"
      ],
      [
        "Ġ",
        "K"
      ],
      [
        "Ġb",
        "isa"
      ],
      [
        "am",
        "p"
      ],
      [
        "e",
        "h"
      ],
      [
        "en",
        "si"
      ],
      [
        "ti",
        "f"
      ],
      [
        "u",
        "p"
      ],
      [
        "Ġpen",
        "gendalian"
      ],
      [
        "Ġse",
        "cara"
      ],
      [
        "t",
        "r"
      ],
      [
        "Ġ",
        "ad"
      ],
      [
        "Ġt",
        "idak"
      ],
      [
        "Ġv",
        "arietas"
      ],
      [
        "ebar",
        "an"
      ],
      [
        "ebab",
        "kan"
      ],
      [
        "Ġb",
        "i"
      ],
      [
        "u",
        "d"
      ],
      [
        "u",
        "j"
      ],
      [
        "i",
        "kan"
      ],
      [
        "o",
        "m"
      ],
      [
        "um",
        "b"
      ],
      [
        "Ġ",
        "or"
      ],
      [
        "ĠP",
        "en"
      ],
      [
        "Ġper",
        "t"
      ],
      [
        "isi",
        "da"
      ],
      [
        "Ġ",
        "e"
      ],
      [
        "Ġpeny",
        "ebaran"
      ],
      [
        "or",
        "a"
      ],
      [
        "Ġg",
        "ejala"
      ],
      [
        "at",
        "o"
      ],
      [
        "Ġs",
        "a"
      ],
      [
        "al",
        "u"
      ],
      [
        "k",
        "emb"
      ],
      [
        "al",
        "ah"
      ],
      [
        "ung",
        "isida"
      ],
      [
        "gun",
        "aan"
      ],
      [
        "i",
        "um"
      ],
      [
        "ak",
        "t"
      ],
      [
        "ung",
        "an"
      ],
      [
        "Ġ",
        "T"
      ],
      [
        "Ġp",
        "ato"
      ],
      [
        "Ġmen",
        "jadi"
      ],
      [
        "ing",
        "ga"
      ],
      [
        "Ġ",
        "n"
      ],
      [
        "e",
        "g"
      ],
      [
        "u",
        "si"
      ],
      [
        "ak",
        "ah"
      ],
      [
        "Ġkon",
        "d"
      ],
      [
        "i",
        "p"
      ],
      [
        "an",
        "i"
      ],
      [
        "Ġv",
        "ir"
      ],
      [
        "Ġp",
        "et"
      ],
      [
        "a",
        "e"
      ],
      [
        "d",
        "uk"
      ],
      [
        "i",
        "m"
      ],
      [
        "Ġ",
        "I"
      ],
      [
        "ti",
        "k"
      ],
      [
        "Ġf",
        "ungisida"
      ],
      [
        "Ġmeny",
        "ebabkan"
      ],
      [
        "sis",
        "t"
      ],
      [
        "c",
        "ak"
      ],
      [
        "i",
        "a"
      ],
      [
        "at",
        "an"
      ],
      [
        "Ġt",
        "ing"
      ],
      [
        "in",
        "feksi"
      ],
      [
        "Ġs",
        "eb"
      ],
      [
        "Ġb",
        "en"
      ],
      [
        "am",
        "b"
      ],
      [
        "Ġkond",
        "isi"
      ],
      [
        "Ġting",
        "gi"
      ],
      [
        "y",
        "z"
      ],
      [
        "Ġ",
        "D"
      ],
      [
        "Ġ",
        "gen"
      ],
      [
        "it",
        "as"
      ],
      [
        "ol",
        "eh"
      ],
      [
        "Ġ",
        "si"
      ],
      [
        "ur",
        "ang"
      ],
      [
        "Ġe",
        "fek"
      ],
      [
        "h",
        "t"
      ],
      [
        "Ġj",
        "u"
      ],
      [
        "yz",
        "ae"
      ],
      [
        "a",
        "y"
      ],
      [
        "g",
        "ht"
      ],
      [
        "ak",
        "teri"
      ],
      [
        "ang",
        "at"
      ],
      [
        "ac",
        "teri"
      ],
      [
        "Ġor",
        "yzae"
      ],
      [
        "Ġpato",
        "gen"
      ],
      [
        "i",
        "b"
      ],
      [
        "Ġ",
        "ak"
      ],
      [
        "Ġ",
        "oleh"
      ],
      [
        "ĠAp",
        "akah"
      ],
      [
        "Ġser",
        "angan"
      ],
      [
        "Ġ",
        "R"
      ],
      [
        "Ġmen",
        "ingkat"
      ],
      [
        "Ġk",
        "el"
      ],
      [
        "Ġju",
        "ga"
      ],
      [
        "t",
        "ing"
      ],
      [
        "Ġp",
        "an"
      ],
      [
        "Ġk",
        "er"
      ],
      [
        "ik",
        "asi"
      ],
      [
        "Ġpet",
        "ani"
      ],
      [
        "k",
        "o"
      ],
      [
        "k",
        "in"
      ],
      [
        "Ġs",
        "el"
      ],
      [
        "Ġs",
        "angat"
      ],
      [
        "Ġber",
        "b"
      ],
      [
        "ik",
        "a"
      ],
      [
        "Ġse",
        "h"
      ],
      [
        "uh",
        "an"
      ],
      [
        "Ġsp",
        "ora"
      ],
      [
        "Ġ",
        "aw"
      ],
      [
        "ap",
        "an"
      ],
      [
        "Ġmeng",
        "h"
      ],
      [
        "Ġaw",
        "al"
      ],
      [
        "e",
        "si"
      ],
      [
        "Ġb",
        "ag"
      ],
      [
        "Ġpen",
        "ting"
      ],
      [
        "ti",
        "si"
      ],
      [
        "Ġter",
        "infeksi"
      ],
      [
        "in",
        "d"
      ],
      [
        "Ġmen",
        "c"
      ],
      [
        "Ġh",
        "asil"
      ],
      [
        "Ġvir",
        "us"
      ],
      [
        "j",
        "a"
      ],
      [
        "Ġ",
        "ai"
      ],
      [
        "Ġk",
        "et"
      ],
      [
        "uj",
        "an"
      ],
      [
        "alu",
        "i"
      ],
      [
        "Ġmeningkat",
        "kan"
      ],
      [
        "Ġai",
        "r"
      ],
      [
        "en",
        "a"
      ],
      [
        "Ġl",
        "ingk"
      ],
      [
        "Ġl",
        "ain"
      ],
      [
        "ung",
        "kin"
      ],
      [
        "gun",
        "akan"
      ],
      [
        "Ġpeng",
        "gunaan"
      ],
      [
        "Ġmel",
        "alui"
      ],
      [
        "ĠI",
        "n"
      ],
      [
        "tisi",
        "da"
      ],
      [
        "Ġ",
        "utama"
      ],
      [
        "at",
        "u"
      ],
      [
        "ep",
        "at"
      ],
      [
        "Ġlingk",
        "ungan"
      ],
      [
        "as",
        "e"
      ],
      [
        "eb",
        "er"
      ],
      [
        "Ġh",
        "ujan"
      ],
      [
        "ahan",
        "an"
      ],
      [
        "ĠM",
        "eng"
      ],
      [
        "Ġ",
        "C"
      ],
      [
        "en",
        "d"
      ],
      [
        "ak",
        "ukan"
      ],
      [
        "Ġmeny",
        "ebar"
      ],
      [
        ")",
        ","
      ],
      [
        "i",
        "c"
      ],
      [
        "an",
        "ya"
      ],
      [
        "ar",
        "uh"
      ],
      [
        "Ġber",
        "cak"
      ],
      [
        "ai",
        "k"
      ],
      [
        "Ġad",
        "alah"
      ],
      [
        "ĠPen",
        "y"
      ],
      [
        "Ġben",
        "ih"
      ],
      [
        "u",
        "b"
      ],
      [
        "ar",
        "ena"
      ],
      [
        "Ġmem",
        "per"
      ],
      [
        "isi",
        "ko"
      ],
      [
        "Ġ",
        "ant"
      ],
      [
        "Ġ",
        "ap"
      ],
      [
        "Ġp",
        "ro"
      ],
      [
        "Ġm",
        "er"
      ],
      [
        "Ġs",
        "tr"
      ],
      [
        "ĠP",
        "eng"
      ],
      [
        "Ġs",
        "atu"
      ],
      [
        "Ġb",
        "akteri"
      ],
      [
        "ent",
        "an"
      ],
      [
        "o",
        "p"
      ],
      [
        "t",
        "or"
      ],
      [
        "Ġ",
        "ek"
      ],
      [
        "Ġd",
        "it"
      ],
      [
        "ĠB",
        "li"
      ],
      [
        "ĠB",
        "acteri"
      ],
      [
        "ant",
        "u"
      ],
      [
        "umb",
        "uhan"
      ],
      [
        "ĠBli",
        "ght"
      ],
      [
        "l",
        "us"
      ],
      [
        "o",
        "d"
      ],
      [
        "el",
        "ah"
      ],
      [
        "Ġter",
        "utama"
      ],
      [
        "emb",
        "apan"
      ],
      [
        "Ġpan",
        "en"
      ],
      [
        "o",
        "b"
      ],
      [
        "an",
        "j"
      ],
      [
        "am",
        "an"
      ],
      [
        "es",
        "tisida"
      ],
      [
        "Ġmemb",
        "antu"
      ],
      [
        "Ġket",
        "ahanan"
      ],
      [
        "c",
        "h"
      ],
      [
        "Ġ",
        "J"
      ],
      [
        "eng",
        "aruh"
      ],
      [
        "akt",
        "u"
      ],
      [
        "urang",
        "i"
      ],
      [
        "ing",
        "an"
      ],
      [
        "Ġj",
        "ika"
      ],
      [
        "ul",
        "asi"
      ],
      [
        "Ġmeng",
        "urangi"
      ],
      [
        "Ġefek",
        "tif"
      ],
      [
        "e",
        "kan"
      ],
      [
        "p",
        "engaruh"
      ],
      [
        "t",
        "a"
      ],
      [
        "en",
        "tuk"
      ],
      [
        "al",
        "nya"
      ],
      [
        "un",
        "c"
      ],
      [
        "Ġl",
        "ap"
      ],
      [
        "ati",
        "f"
      ],
      [
        "Ġpert",
        "umbuhan"
      ],
      [
        "eber",
        "apa"
      ],
      [
        "an",
        "d"
      ],
      [
        "Ġp",
        "estisida"
      ],
      [
        "it",
        "u"
      ],
      [
        "Ġdi",
        "s"
      ],
      [
        "ur",
        "un"
      ],
      [
        "Ġmem",
        "il"
      ],
      [
        "is",
        "alnya"
      ],
      [
        "ag",
        "n"
      ],
      [
        "Ġr",
        "isiko"
      ],
      [
        "Ġser",
        "ta"
      ],
      [
        "sis",
        "a"
      ],
      [
        "amp",
        "ak"
      ],
      [
        "Ġsa",
        "at"
      ],
      [
        "Ġseh",
        "ingga"
      ],
      [
        "ĠMeng",
        "apa"
      ],
      [
        "ĠBacteri",
        "al"
      ],
      [
        "unc",
        "ul"
      ],
      [
        "l",
        "ikasi"
      ],
      [
        "u",
        "an"
      ],
      [
        "u",
        "al"
      ],
      [
        "Ġp",
        "ol"
      ],
      [
        "ek",
        "tor"
      ],
      [
        "Ġper",
        "kemb"
      ],
      [
        "Ġr",
        "e"
      ],
      [
        "Ġv",
        "ektor"
      ],
      [
        "Ġw",
        "aktu"
      ],
      [
        "kemb",
        "ang"
      ],
      [
        "usi",
        "m"
      ],
      [
        "Ġperkemb",
        "angan"
      ],
      [
        "e",
        "d"
      ],
      [
        "h",
        "e"
      ],
      [
        "Ġm",
        "uncul"
      ],
      [
        "Ġt",
        "ahan"
      ],
      [
        "Ġk",
        "arena"
      ],
      [
        "Ġter",
        "jadi"
      ],
      [
        "ab",
        "ah"
      ],
      [
        "Ġr",
        "entan"
      ],
      [
        "Ġsa",
        "ja"
      ],
      [
        "ay",
        "ati"
      ],
      [
        "pengaruh",
        "i"
      ],
      [
        "t",
        "asi"
      ],
      [
        "Ġ",
        "N"
      ],
      [
        "ap",
        "or"
      ],
      [
        "Ġpeny",
        "ebab"
      ],
      [
        "Ġdi",
        "l"
      ],
      [
        "or",
        "ium"
      ],
      [
        "Ġh",
        "ayati"
      ],
      [
        "Ġf",
        "ase"
      ],
      [
        "m",
        "uk"
      ],
      [
        "Ġ",
        "H"
      ],
      [
        "em",
        "p"
      ],
      [
        "Ġk",
        "es"
      ],
      [
        "el",
        "um"
      ],
      [
        "Ġter",
        "b"
      ],
      [
        "ik",
        "i"
      ],
      [
        "Ġper",
        "muk"
      ],
      [
        "Ġkel",
        "embapan"
      ],
      [
        "Ġmemil",
        "iki"
      ],
      [
        "Ġpermuk",
        "aan"
      ],
      [
        "o",
        "ch"
      ],
      [
        "Ġ",
        "um"
      ],
      [
        "Ġp",
        "r"
      ],
      [
        "Ġm",
        "usim"
      ],
      [
        "ar",
        "an"
      ],
      [
        "Ġk",
        "em"
      ],
      [
        "on",
        "al"
      ],
      [
        "Ġlap",
        "angan"
      ],
      [
        "i",
        "g"
      ],
      [
        "j",
        "uk"
      ],
      [
        "t",
        "he"
      ],
      [
        "Ġ",
        "Y"
      ],
      [
        "ar",
        "n"
      ],
      [
        "Ġmen",
        "un"
      ],
      [
        "Ġber",
        "k"
      ],
      [
        "Ġber",
        "kembang"
      ],
      [
        "Ġmem",
        "pengaruhi"
      ],
      [
        "Ġdil",
        "akukan"
      ],
      [
        "al",
        "i"
      ],
      [
        "Ġl",
        "ahan"
      ],
      [
        "ti",
        "v"
      ],
      [
        "Ġdi",
        "k"
      ],
      [
        "Ġtan",
        "ah"
      ],
      [
        "et",
        "elah"
      ],
      [
        "li",
        "m"
      ],
      [
        "Ġbag",
        "i"
      ],
      [
        "ĠY",
        "a"
      ],
      [
        "b",
        "e"
      ],
      [
        "Ġp",
        "em"
      ],
      [
        "Ġm",
        "ungkin"
      ],
      [
        "Ġt",
        "ingkat"
      ],
      [
        "ar",
        "u"
      ],
      [
        "ad",
        "a"
      ],
      [
        "ol",
        "o"
      ],
      [
        "Ġg",
        "abah"
      ],
      [
        "asil",
        "kan"
      ],
      [
        "ud",
        "ah"
      ],
      [
        "ib",
        "at"
      ],
      [
        "ĠPeny",
        "akit"
      ],
      [
        "agn",
        "apor"
      ],
      [
        "agnapor",
        "the"
      ],
      [
        "m",
        "isalnya"
      ],
      [
        "am",
        "un"
      ],
      [
        "Ġdi",
        "gunakan"
      ],
      [
        "ĠM",
        "agnaporthe"
      ],
      [
        "Ġre",
        "sist"
      ],
      [
        "juk",
        "kan"
      ],
      [
        "arn",
        "a"
      ],
      [
        "Ġmenun",
        "jukkan"
      ],
      [
        "g",
        "an"
      ],
      [
        "u",
        "as"
      ],
      [
        "er",
        "ang"
      ],
      [
        "ek",
        "si"
      ],
      [
        "Ġdi",
        "b"
      ],
      [
        "ik",
        "lim"
      ],
      [
        "aw",
        "ar"
      ],
      [
        "aw",
        "ah"
      ],
      [
        "duk",
        "ung"
      ],
      [
        "od",
        "e"
      ],
      [
        "tiv",
        "itas"
      ],
      [
        ")",
        "."
      ],
      [
        "m",
        "e"
      ],
      [
        "u",
        "ti"
      ],
      [
        "Ġ",
        "a"
      ],
      [
        "Ġ",
        "iklim"
      ],
      [
        "Ġb",
        "aik"
      ],
      [
        "ar",
        "ah"
      ],
      [
        "Ġmen",
        "urun"
      ],
      [
        "asi",
        "onal"
      ],
      [
        "Ġber",
        "l"
      ],
      [
        "Ġj",
        "ar"
      ],
      [
        "Ġh",
        "ingga"
      ],
      [
        "Ġc",
        "ara"
      ],
      [
        "Ġad",
        "a"
      ],
      [
        "akt",
        "or"
      ],
      [
        "Ġseb",
        "agai"
      ],
      [
        "Ġum",
        "um"
      ],
      [
        "i",
        "f"
      ],
      [
        "p",
        "r"
      ],
      [
        "Ġ",
        "G"
      ],
      [
        "Ġ",
        "apa"
      ],
      [
        "Ġ",
        "itu"
      ],
      [
        "Ġp",
        "emb"
      ],
      [
        "Ġs",
        "ek"
      ],
      [
        "al",
        "ing"
      ],
      [
        "Ġmen",
        "dukung"
      ],
      [
        "ur",
        "an"
      ],
      [
        "Ġc",
        "epat"
      ],
      [
        "umb",
        "er"
      ],
      [
        "ig",
        "asi"
      ],
      [
        "Ġ",
        "sisa"
      ],
      [
        "Ġp",
        "aling"
      ],
      [
        "Ġb",
        "aru"
      ],
      [
        "Ġk",
        "im"
      ],
      [
        "is",
        "me"
      ],
      [
        "ik",
        "ro"
      ],
      [
        "es",
        "ar"
      ],
      [
        "sist",
        "em"
      ],
      [
        "amb",
        "at"
      ],
      [
        "Ġmengh",
        "asilkan"
      ],
      [
        "Ġant",
        "ara"
      ],
      [
        "ĠN",
        "amun"
      ],
      [
        "Ġ",
        "an"
      ],
      [
        "Ġs",
        "etelah"
      ],
      [
        "Ġs",
        "umber"
      ],
      [
        "ang",
        "s"
      ],
      [
        "Ġmen",
        "gendal"
      ],
      [
        "Ġc",
        "ok"
      ],
      [
        "Ġke",
        "p"
      ],
      [
        "ac",
        "il"
      ],
      [
        "Ġpert",
        "an"
      ],
      [
        "duk",
        "si"
      ],
      [
        "Ġmengendal",
        "ikan"
      ],
      [
        "f",
        "or"
      ],
      [
        "t",
        "an"
      ],
      [
        "Ġ",
        "L"
      ],
      [
        "Ġm",
        "as"
      ],
      [
        "al",
        "ai"
      ],
      [
        "ang",
        "g"
      ],
      [
        "Ġk",
        "ek"
      ],
      [
        "alam",
        "i"
      ],
      [
        "eg",
        "ah"
      ],
      [
        "Ġak",
        "ibat"
      ],
      [
        "Ġbag",
        "ian"
      ],
      [
        "Ġmenc",
        "egah"
      ],
      [
        "ob",
        "ol"
      ],
      [
        "Ġberl",
        "ebih"
      ],
      [
        "f",
        "ik"
      ],
      [
        "Ġ",
        "ir"
      ],
      [
        "en",
        "is"
      ],
      [
        "er",
        "eng"
      ],
      [
        "Ġm",
        "ikro"
      ],
      [
        "Ġm",
        "alai"
      ],
      [
        "Ġs",
        "awah"
      ],
      [
        "ang",
        "k"
      ],
      [
        "or",
        "asional"
      ],
      [
        "Ġper",
        "l"
      ],
      [
        "Ġbi",
        "orasional"
      ],
      [
        "im",
        "b"
      ],
      [
        "Ġap",
        "likasi"
      ],
      [
        "Ġkim",
        "ia"
      ],
      [
        "g",
        "n"
      ],
      [
        "i",
        "ya"
      ],
      [
        "i",
        "da"
      ],
      [
        "m",
        "asi"
      ],
      [
        "t",
        "e"
      ],
      [
        "u",
        "a"
      ],
      [
        "an",
        "y"
      ],
      [
        "an",
        "us"
      ],
      [
        "Ġm",
        "iya"
      ],
      [
        "at",
        "a"
      ],
      [
        "at",
        "e"
      ],
      [
        "ar",
        "kan"
      ],
      [
        "el",
        "ol"
      ],
      [
        "Ġper",
        "an"
      ],
      [
        "ĠP",
        "er"
      ],
      [
        "ul",
        "ai"
      ],
      [
        "uh",
        "u"
      ],
      [
        "Ġmemb",
        "entuk"
      ],
      [
        "ac",
        "a"
      ],
      [
        "Ġsp",
        "esi"
      ],
      [
        "ip",
        "uti"
      ],
      [
        "Ġseb",
        "elum"
      ],
      [
        "Ġsi",
        "gn"
      ],
      [
        "ĠPeng",
        "gunaan"
      ],
      [
        "be",
        "anus"
      ],
      [
        "if",
        "ikan"
      ],
      [
        "angs",
        "ung"
      ],
      [
        "acil",
        "lus"
      ],
      [
        "Ġir",
        "igasi"
      ],
      [
        "Ġmiya",
        "beanus"
      ],
      [
        "Ġsign",
        "ifikan"
      ],
      [
        "a",
        "ya"
      ],
      [
        "e",
        "tik"
      ],
      [
        "w",
        "arna"
      ],
      [
        "Ġ",
        "id"
      ],
      [
        "Ġt",
        "et"
      ],
      [
        "it",
        "ro"
      ],
      [
        "Ġl",
        "uas"
      ],
      [
        "Ġter",
        "l"
      ],
      [
        "Ġber",
        "warna"
      ],
      [
        "et",
        "eksi"
      ],
      [
        "ĠS",
        "el"
      ],
      [
        "Ġmel",
        "iputi"
      ],
      [
        "li",
        "obol"
      ],
      [
        "Ġw",
        "ereng"
      ],
      [
        "ud",
        "ida"
      ],
      [
        "ĠR",
        "T"
      ],
      [
        "ĠC",
        "och"
      ],
      [
        "Ġpol",
        "a"
      ],
      [
        "Ġresist",
        "ensi"
      ],
      [
        "ate",
        "gi"
      ],
      [
        "itro",
        "gen"
      ],
      [
        "liobol",
        "us"
      ],
      [
        "udida",
        "ya"
      ],
      [
        "ĠCoch",
        "liobolus"
      ],
      [
        "c",
        "amb"
      ],
      [
        "k",
        "on"
      ],
      [
        "m",
        "a"
      ],
      [
        "o",
        "s"
      ],
      [
        "s",
        "orium"
      ],
      [
        "u",
        "da"
      ],
      [
        "Ġ",
        "V"
      ],
      [
        "Ġ",
        "alami"
      ],
      [
        "Ġd",
        "in"
      ],
      [
        "Ġm",
        "uda"
      ],
      [
        "al",
        "ahan"
      ],
      [
        "Ġb",
        "udidaya"
      ],
      [
        "Ġmen",
        "d"
      ],
      [
        "Ġl",
        "angsung"
      ],
      [
        "ek",
        "n"
      ],
      [
        "Ġter",
        "us"
      ],
      [
        "Ġber",
        "t"
      ],
      [
        "Ġber",
        "at"
      ],
      [
        "Ġj",
        "enis"
      ],
      [
        "es",
        "k"
      ],
      [
        "es",
        "sorium"
      ],
      [
        "aw",
        "a"
      ],
      [
        "ub",
        "ahan"
      ],
      [
        "anj",
        "ut"
      ],
      [
        "Ġpr",
        "ak"
      ],
      [
        "Ġmenurun",
        "kan"
      ],
      [
        "pr",
        "essorium"
      ],
      [
        "any",
        "ak"
      ],
      [
        "Ġspesi",
        "fik"
      ],
      [
        "a",
        "j"
      ],
      [
        "k",
        "lus"
      ],
      [
        "o",
        "si"
      ],
      [
        "p",
        "a"
      ],
      [
        "Ġ",
        "al"
      ],
      [
        "Ġ",
        "uj"
      ],
      [
        "Ġs",
        "udah"
      ],
      [
        "in",
        "asi"
      ],
      [
        "it",
        "ar"
      ],
      [
        "Ġh",
        "ari"
      ],
      [
        "ĠP",
        "ada"
      ],
      [
        "ot",
        "ensi"
      ],
      [
        "Ġmeny",
        "erang"
      ],
      [
        "ent",
        "ukan"
      ],
      [
        "om",
        "p"
      ],
      [
        "Ġsi",
        "klus"
      ],
      [
        "Ġefek",
        "tivitas"
      ],
      [
        "Ġsek",
        "itar"
      ],
      [
        "Ġpertan",
        "ian"
      ],
      [
        "e",
        "al"
      ],
      [
        "g",
        "ant"
      ],
      [
        "h",
        "er"
      ],
      [
        "u",
        "at"
      ],
      [
        "u",
        "aca"
      ],
      [
        "Ġ",
        "F"
      ],
      [
        "Ġp",
        "op"
      ],
      [
        "Ġd",
        "ampak"
      ],
      [
        "ang",
        "in"
      ],
      [
        "Ġb",
        "ah"
      ],
      [
        "Ġb",
        "eberapa"
      ],
      [
        "Ġl",
        "emb"
      ],
      [
        "Ġl",
        "ok"
      ],
      [
        "eb",
        "ut"
      ],
      [
        "el",
        "it"
      ],
      [
        "Ġter",
        "s"
      ],
      [
        "ai",
        "kan"
      ],
      [
        "Ġmem",
        "ungkin"
      ],
      [
        "Ġh",
        "id"
      ],
      [
        "Ġper",
        "ubahan"
      ],
      [
        "Ġmeng",
        "gunakan"
      ],
      [
        "Ġg",
        "ul"
      ],
      [
        "id",
        "ia"
      ],
      [
        "adap",
        "tasi"
      ],
      [
        "up",
        "uk"
      ],
      [
        "om",
        "i"
      ],
      [
        "ĠT",
        "an"
      ],
      [
        "Ġgen",
        "etik"
      ],
      [
        "Ġseh",
        "at"
      ],
      [
        "Ġstr",
        "ategi"
      ],
      [
        "ĠJ",
        "amur"
      ],
      [
        "olo",
        "gi"
      ],
      [
        "Ġa",
        "gen"
      ],
      [
        "ĠG",
        "ejala"
      ],
      [
        "elol",
        "aan"
      ],
      [
        "Ġtet",
        "ap"
      ],
      [
        "ĠSel",
        "ain"
      ],
      [
        "Ġpop",
        "ulasi"
      ],
      [
        "Ġmemungkin",
        "kan"
      ],
      [
        "i",
        "j"
      ],
      [
        "i",
        "ght"
      ],
      [
        "l",
        "at"
      ],
      [
        "o",
        "sis"
      ],
      [
        "w",
        "a"
      ],
      [
        "Ġ",
        "ro"
      ],
      [
        "Ġ",
        "akan"
      ],
      [
        "Ġ",
        "angin"
      ],
      [
        "Ġp",
        "el"
      ],
      [
        "Ġb",
        "acteri"
      ],
      [
        "Ġmen",
        "gen"
      ],
      [
        "Ġber",
        "d"
      ],
      [
        "Ġber",
        "as"
      ],
      [
        "Ġh",
        "ar"
      ],
      [
        "us",
        "akan"
      ],
      [
        "Ġf",
        "aktor"
      ],
      [
        "Ġc",
        "uaca"
      ],
      [
        "Ġbl",
        "ight"
      ],
      [
        "Ġle",
        "si"
      ],
      [
        "ĠIn",
        "i"
      ],
      [
        "ic",
        "u"
      ],
      [
        "Ġek",
        "s"
      ],
      [
        "Ġdis",
        "ebabkan"
      ],
      [
        "ual",
        "itas"
      ],
      [
        "for",
        "masi"
      ],
      [
        "Ġberlebih",
        "an"
      ],
      [
        "Ġdin",
        "i"
      ],
      [
        "Ġprak",
        "tik"
      ],
      [
        "Ġbacteri",
        "cal"
      ],
      [
        "d",
        "er"
      ],
      [
        "e",
        "da"
      ],
      [
        "i",
        "ode"
      ],
      [
        "l",
        "ah"
      ],
      [
        "y",
        "m"
      ],
      [
        "â",
        "Ģ"
      ],
      [
        "Ġ",
        "1"
      ],
      [
        "Ġ",
        "is"
      ],
      [
        "Ġ",
        "sistem"
      ],
      [
        "Ġp",
        "upuk"
      ],
      [
        "Ġm",
        "et"
      ],
      [
        "Ġb",
        "anyak"
      ],
      [
        "am",
        "atan"
      ],
      [
        "Ġpen",
        "d"
      ],
      [
        "Ġk",
        "urang"
      ],
      [
        "as",
        "anya"
      ],
      [
        "Ġdi",
        "p"
      ],
      [
        "ĠB",
        "er"
      ],
      [
        "Ġin",
        "ang"
      ],
      [
        "on",
        "omi"
      ],
      [
        "ut",
        "us"
      ],
      [
        "il",
        "ay"
      ],
      [
        "Ġser",
        "ing"
      ],
      [
        "Ġw",
        "ilay"
      ],
      [
        "Ġor",
        "gan"
      ],
      [
        "Ġberb",
        "eda"
      ],
      [
        "Ġdik",
        "en"
      ],
      [
        "Ġjar",
        "ingan"
      ],
      [
        "Ġperl",
        "u"
      ],
      [
        "Ġbert",
        "ahan"
      ],
      [
        "Ġhid",
        "up"
      ],
      [
        "âĢ",
        "ĵ"
      ],
      [
        "Ġwilay",
        "ah"
      ],
      [
        "a",
        "un"
      ],
      [
        "e",
        "camb"
      ],
      [
        "t",
        "ur"
      ],
      [
        "x",
        "a"
      ],
      [
        "y",
        "xa"
      ],
      [
        "Ġ",
        "op"
      ],
      [
        "en",
        "tif"
      ],
      [
        "er",
        "si"
      ],
      [
        "ti",
        "m"
      ],
      [
        "Ġber",
        "ik"
      ],
      [
        "ur",
        "angan"
      ],
      [
        "Ġtan",
        "pa"
      ],
      [
        "Ġh",
        "awar"
      ],
      [
        "Ġse",
        "d"
      ],
      [
        "ut",
        "nya"
      ],
      [
        "Ġg",
        "l"
      ],
      [
        "Ġle",
        "her"
      ],
      [
        "Ġke",
        "c"
      ],
      [
        "ep",
        "i"
      ],
      [
        "ent",
        "u"
      ],
      [
        "ok",
        "ul"
      ],
      [
        "ĠD",
        "aun"
      ],
      [
        "Ġker",
        "usakan"
      ],
      [
        "ĠIn",
        "d"
      ],
      [
        "Ġant",
        "ar"
      ],
      [
        "Ġap",
        "pressorium"
      ],
      [
        "Ġek",
        "onomi"
      ],
      [
        "Ġpol",
        "ym"
      ],
      [
        "Ġcok",
        "lat"
      ],
      [
        "Ġuj",
        "ung"
      ],
      [
        "Ġro",
        "tasi"
      ],
      [
        "Ġberik",
        "utnya"
      ],
      [
        "Ġpolym",
        "yxa"
      ],
      [
        "a",
        "en"
      ],
      [
        "e",
        "f"
      ],
      [
        "r",
        "an"
      ],
      [
        "s",
        "e"
      ],
      [
        "t",
        "akan"
      ],
      [
        "t",
        "entu"
      ],
      [
        "Ġ",
        "O"
      ],
      [
        "Ġ",
        "ar"
      ],
      [
        "Ġt",
        "epi"
      ],
      [
        "Ġs",
        "em"
      ],
      [
        "Ġs",
        "alah"
      ],
      [
        "al",
        "ium"
      ],
      [
        "ang",
        "kan"
      ],
      [
        "am",
        "i"
      ],
      [
        "Ġk",
        "h"
      ],
      [
        "Ġk",
        "ualitas"
      ],
      [
        "it",
        "asi"
      ],
      [
        "ek",
        "s"
      ],
      [
        "ti",
        "p"
      ],
      [
        "Ġter",
        "tentu"
      ],
      [
        "ĠB",
        "akteri"
      ],
      [
        "ĠB",
        "eberapa"
      ],
      [
        "Ġh",
        "ara"
      ],
      [
        "Ġh",
        "anya"
      ],
      [
        "Ġper",
        "s"
      ],
      [
        "ĠP",
        "aen"
      ],
      [
        "ab",
        "u"
      ],
      [
        "Ġr",
        "end"
      ],
      [
        "ingk",
        "ali"
      ],
      [
        "ter",
        "n"
      ],
      [
        "Ġser",
        "ingkali"
      ],
      [
        "Ġmemb",
        "uat"
      ],
      [
        "Ġpeng",
        "elolaan"
      ],
      [
        "Ġmel",
        "akukan"
      ],
      [
        "Ġbi",
        "asanya"
      ],
      [
        "Ġn",
        "itrogen"
      ],
      [
        "ip",
        "un"
      ],
      [
        "ip",
        "takan"
      ],
      [
        "ib",
        "acillus"
      ],
      [
        "Ġberb",
        "agai"
      ],
      [
        "Ġmenc",
        "iptakan"
      ],
      [
        "ob",
        "al"
      ],
      [
        "ekan",
        "an"
      ],
      [
        "Ġid",
        "eal"
      ],
      [
        "esk",
        "ipun"
      ],
      [
        "Ġlok",
        "al"
      ],
      [
        "ĠPaen",
        "ibacillus"
      ],
      [
        "m",
        "en"
      ],
      [
        "n",
        "te"
      ],
      [
        "r",
        "isi"
      ],
      [
        "u",
        "i"
      ],
      [
        "Ġ",
        "2"
      ],
      [
        "Ġ",
        "ag"
      ],
      [
        "Ġ",
        "ud"
      ],
      [
        "Ġ",
        "adaptasi"
      ],
      [
        "er",
        "ah"
      ],
      [
        "er",
        "us"
      ],
      [
        "Ġp",
        "angan"
      ],
      [
        "Ġt",
        "ekn"
      ],
      [
        "Ġt",
        "ekanan"
      ],
      [
        "Ġs",
        "uhu"
      ],
      [
        "in",
        "t"
      ],
      [
        "Ġb",
        "as"
      ],
      [
        "Ġb",
        "ahan"
      ],
      [
        "Ġb",
        "esar"
      ],
      [
        "ah",
        "ui"
      ],
      [
        "it",
        "or"
      ],
      [
        "ek",
        "a"
      ],
      [
        "ur",
        "ah"
      ],
      [
        "et",
        "ahui"
      ],
      [
        "Ġmem",
        "icu"
      ],
      [
        "Ġper",
        "iode"
      ],
      [
        "ari",
        "asi"
      ],
      [
        "ut",
        "risi"
      ],
      [
        "Ġke",
        "h"
      ],
      [
        "Ġmemb",
        "awa"
      ],
      [
        "ĠSp",
        "ora"
      ],
      [
        "ĠK",
        "alium"
      ],
      [
        "amp",
        "uan"
      ],
      [
        "up",
        "ukan"
      ],
      [
        "Ġn",
        "utrisi"
      ],
      [
        "end",
        "er"
      ],
      [
        "and",
        "ing"
      ],
      [
        "Ġdib",
        "anding"
      ],
      [
        "elit",
        "ian"
      ],
      [
        "Ġeks",
        "tr"
      ],
      [
        "Ġgl",
        "obal"
      ],
      [
        "Ġkec",
        "il"
      ],
      [
        "okul",
        "um"
      ],
      [
        "Ġud",
        "ara"
      ],
      [
        "c",
        "ikan"
      ],
      [
        "d",
        "och"
      ],
      [
        "g",
        "is"
      ],
      [
        "g",
        "angg"
      ],
      [
        "j",
        "ang"
      ],
      [
        "s",
        "es"
      ],
      [
        "u",
        "g"
      ],
      [
        "Ġ",
        "U"
      ],
      [
        "an",
        "itasi"
      ],
      [
        "Ġp",
        "arah"
      ],
      [
        "Ġt",
        "ind"
      ],
      [
        "Ġs",
        "t"
      ],
      [
        "Ġk",
        "omp"
      ],
      [
        "Ġl",
        "ama"
      ],
      [
        "Ġl",
        "anjut"
      ],
      [
        "Ġber",
        "per"
      ],
      [
        "ro",
        "doch"
      ],
      [
        "ag",
        "a"
      ],
      [
        "Ġin",
        "s"
      ],
      [
        "Ġin",
        "t"
      ],
      [
        "Ġin",
        "formasi"
      ],
      [
        "Ġin",
        "okulum"
      ],
      [
        "us",
        "ak"
      ],
      [
        "on",
        "esi"
      ],
      [
        "ih",
        "an"
      ],
      [
        "Ġda",
        "erah"
      ],
      [
        "Ġf",
        "ot"
      ],
      [
        "ant",
        "au"
      ],
      [
        "eh",
        "atan"
      ],
      [
        "ĠT",
        "idak"
      ],
      [
        "Ġn",
        "eg"
      ],
      [
        "ĠD",
        "alam"
      ],
      [
        "Ġpan",
        "jang"
      ],
      [
        "Ġmengh",
        "ambat"
      ],
      [
        "ic",
        "rodoch"
      ],
      [
        "Ġmemper",
        "b"
      ],
      [
        "Ġmemper",
        "p"
      ],
      [
        "Ġpro",
        "duksi"
      ],
      [
        "emp",
        "ro"
      ],
      [
        "Ġkes",
        "alahan"
      ],
      [
        "olo",
        "gis"
      ],
      [
        "ĠV",
        "arietas"
      ],
      [
        "Ġlemb",
        "ap"
      ],
      [
        "ĠInd",
        "onesi"
      ],
      [
        "tip",
        "e"
      ],
      [
        "men",
        "erus"
      ],
      [
        "nte",
        "sis"
      ],
      [
        "Ġbas",
        "ah"
      ],
      [
        "gangg",
        "u"
      ],
      [
        "Ġtind",
        "akan"
      ],
      [
        "Ġberper",
        "an"
      ],
      [
        "icrodoch",
        "ium"
      ],
      [
        "ĠIndonesi",
        "a"
      ],
      [
        "B",
        "V"
      ],
      [
        "S",
        "V"
      ],
      [
        "d",
        "u"
      ],
      [
        "e",
        "a"
      ],
      [
        "e",
        "af"
      ],
      [
        "f",
        "a"
      ],
      [
        "s",
        "ur"
      ],
      [
        "Ġ",
        "\""
      ],
      [
        "an",
        "fa"
      ],
      [
        "er",
        "ingan"
      ],
      [
        "Ġp",
        "otensi"
      ],
      [
        "Ġm",
        "ana"
      ],
      [
        "Ġm",
        "ekan"
      ],
      [
        "Ġt",
        "ah"
      ],
      [
        "Ġt",
        "epat"
      ],
      [
        "Ġs",
        "akit"
      ],
      [
        "ak",
        "si"
      ],
      [
        "ang",
        "ga"
      ],
      [
        "Ġy",
        "a"
      ],
      [
        "uk",
        "tur"
      ],
      [
        "Ġter",
        "k"
      ],
      [
        "Ġj",
        "angk"
      ],
      [
        "on",
        "itor"
      ],
      [
        "au",
        "h"
      ],
      [
        "isi",
        "ensi"
      ],
      [
        "ul",
        "en"
      ],
      [
        "ĠS",
        "e"
      ],
      [
        "ab",
        "il"
      ],
      [
        "Ġat",
        "as"
      ],
      [
        "Ġr",
        "es"
      ],
      [
        "emb",
        "us"
      ],
      [
        "Ġun",
        "sur"
      ],
      [
        "ĠM",
        "icrodochium"
      ],
      [
        "Ġc",
        "ender"
      ],
      [
        "ĠK",
        "el"
      ],
      [
        "ĠK",
        "arena"
      ],
      [
        "up",
        "akan"
      ],
      [
        "Ġak",
        "tif"
      ],
      [
        "ind",
        "ari"
      ],
      [
        "Ġlain",
        "nya"
      ],
      [
        "Ġmer",
        "upakan"
      ],
      [
        "ĠH",
        "al"
      ],
      [
        "Ġkes",
        "ehatan"
      ],
      [
        "Ġkem",
        "ampuan"
      ],
      [
        "Ġpemb",
        "entukan"
      ],
      [
        "Ġkek",
        "urangan"
      ],
      [
        "osi",
        "ntesis"
      ],
      [
        "Ġters",
        "ebut"
      ],
      [
        "Ġgul",
        "ma"
      ],
      [
        "ij",
        "au"
      ],
      [
        "Ġhar",
        "us"
      ],
      [
        "Ġis",
        "ol"
      ],
      [
        "Ġmet",
        "ode"
      ],
      [
        "Ġop",
        "tim"
      ],
      [
        "Ġkh",
        "as"
      ],
      [
        "Ġrend",
        "ah"
      ],
      [
        "Ġjangk",
        "a"
      ],
      [
        "onitor",
        "ing"
      ],
      [
        "Ġcender",
        "ung"
      ],
      [
        "c",
        "epat"
      ],
      [
        "e",
        "v"
      ],
      [
        "m",
        "as"
      ],
      [
        "r",
        "asi"
      ],
      [
        "Ġ",
        "as"
      ],
      [
        "en",
        "c"
      ],
      [
        "en",
        "s"
      ],
      [
        "Ġm",
        "asi"
      ],
      [
        "Ġm",
        "is"
      ],
      [
        "Ġm",
        "amp"
      ],
      [
        "at",
        "ah"
      ],
      [
        "Ġt",
        "ua"
      ],
      [
        "ar",
        "ahan"
      ],
      [
        "em",
        "ukan"
      ],
      [
        "Ġmen",
        "ekan"
      ],
      [
        "Ġmen",
        "embus"
      ],
      [
        "Ġl",
        "ab"
      ],
      [
        "as",
        "a"
      ],
      [
        "ek",
        "tisida"
      ],
      [
        "el",
        "at"
      ],
      [
        "uk",
        "ti"
      ],
      [
        "Ġter",
        "mas"
      ],
      [
        "ai",
        "an"
      ],
      [
        "is",
        "ual"
      ],
      [
        "um",
        "lah"
      ],
      [
        "Ġh",
        "ijau"
      ],
      [
        "ag",
        "al"
      ],
      [
        "Ġper",
        "cikan"
      ],
      [
        "da",
        "an"
      ],
      [
        "Ġmeng",
        "at"
      ],
      [
        "ep",
        "ah"
      ],
      [
        "ent",
        "ang"
      ],
      [
        "Ġpato",
        "tipe"
      ],
      [
        "Ġben",
        "der"
      ],
      [
        "ĠD",
        "i"
      ],
      [
        "Ġsel",
        "ama"
      ],
      [
        "Ġberb",
        "entuk"
      ],
      [
        "Ġket",
        "er"
      ],
      [
        "Ġmemper",
        "cepat"
      ],
      [
        "anj",
        "ang"
      ],
      [
        "ĠJ",
        "ika"
      ],
      [
        "Ġjar",
        "ak"
      ],
      [
        "Ġan",
        "akan"
      ],
      [
        "Ġkep",
        "arahan"
      ],
      [
        "Ġpel",
        "epah"
      ],
      [
        "Ġmengen",
        "ai"
      ],
      [
        "ersi",
        "h"
      ],
      [
        "Ġar",
        "ea"
      ],
      [
        "Ġdibanding",
        "kan"
      ],
      [
        "Ġins",
        "ektisida"
      ],
      [
        "Ġfot",
        "osintesis"
      ],
      [
        "Ġya",
        "itu"
      ],
      [
        "Ġmamp",
        "u"
      ],
      [
        "Ġtermas",
        "uk"
      ],
      [
        "Ġbender",
        "a"
      ],
      [
        "b",
        "it"
      ],
      [
        "f",
        "at"
      ],
      [
        "g",
        "et"
      ],
      [
        "o",
        "h"
      ],
      [
        "o",
        "v"
      ],
      [
        "o",
        "sistem"
      ],
      [
        "v",
        "ariasi"
      ],
      [
        "Ġ",
        "ep"
      ],
      [
        "er",
        "ami"
      ],
      [
        "Ġd",
        "eteksi"
      ],
      [
        "Ġm",
        "an"
      ],
      [
        "Ġt",
        "elah"
      ],
      [
        "Ġs",
        "k"
      ],
      [
        "Ġb",
        "at"
      ],
      [
        "Ġb",
        "elum"
      ],
      [
        "ar",
        "get"
      ],
      [
        "Ġk",
        "eber"
      ],
      [
        "as",
        "arkan"
      ],
      [
        "ek",
        "om"
      ],
      [
        "ek",
        "atan"
      ],
      [
        "Ġpeny",
        "ul"
      ],
      [
        "Ġdi",
        "m"
      ],
      [
        "Ġdi",
        "per"
      ],
      [
        "Ġber",
        "p"
      ],
      [
        "Ġber",
        "s"
      ],
      [
        "Ġber",
        "variasi"
      ],
      [
        "et",
        "ani"
      ],
      [
        "et",
        "atif"
      ],
      [
        "ro",
        "duksi"
      ],
      [
        "Ġj",
        "auh"
      ],
      [
        "Ġj",
        "umlah"
      ],
      [
        "is",
        "asi"
      ],
      [
        "on",
        "s"
      ],
      [
        "on",
        "t"
      ],
      [
        "ĠP",
        "etani"
      ],
      [
        "ul",
        "ang"
      ],
      [
        "ab",
        "aikan"
      ],
      [
        "Ġv",
        "eg"
      ],
      [
        "Ġv",
        "isual"
      ],
      [
        "Ġg",
        "el"
      ],
      [
        "ir",
        "i"
      ],
      [
        "Ġser",
        "emp"
      ],
      [
        "Ġmemb",
        "er"
      ],
      [
        "Ġpeng",
        "amatan"
      ],
      [
        "ĠK",
        "es"
      ],
      [
        "tr",
        "ib"
      ],
      [
        "Ġbi",
        "j"
      ],
      [
        "Ġbi",
        "aya"
      ],
      [
        "Ġbi",
        "bit"
      ],
      [
        "ud",
        "ian"
      ],
      [
        "ĠPen",
        "gendalian"
      ],
      [
        "Ġker",
        "ug"
      ],
      [
        "end",
        "asi"
      ],
      [
        "Ġpro",
        "ses"
      ],
      [
        "Ġmer",
        "usak"
      ],
      [
        "Ġek",
        "osistem"
      ],
      [
        "Ġdit",
        "emukan"
      ],
      [
        "urun",
        "an"
      ],
      [
        "ĠH",
        "awar"
      ],
      [
        "Ġkem",
        "udian"
      ],
      [
        "Ġberk",
        "ecamb"
      ],
      [
        "Ġpem",
        "upukan"
      ],
      [
        "Ġcok",
        "elat"
      ],
      [
        "ĠL",
        "eaf"
      ],
      [
        "imb",
        "ang"
      ],
      [
        "Ġterl",
        "alu"
      ],
      [
        "ĠRT",
        "BV"
      ],
      [
        "ĠRT",
        "SV"
      ],
      [
        "gant",
        "ungan"
      ],
      [
        "Ġbah",
        "wa"
      ],
      [
        "Ġberd",
        "ampak"
      ],
      [
        "Ġberas",
        "al"
      ],
      [
        "entif",
        "ikasi"
      ],
      [
        "Ġneg",
        "ara"
      ],
      [
        "anfa",
        "at"
      ],
      [
        "Ġtah",
        "un"
      ],
      [
        "Ġisol",
        "at"
      ],
      [
        "Ġoptim",
        "al"
      ],
      [
        "Ġep",
        "id"
      ],
      [
        "ekom",
        "endasi"
      ],
      [
        "Ġveg",
        "etatif"
      ],
      [
        "Ġseremp",
        "ak"
      ],
      [
        "Ġkerug",
        "ian"
      ],
      [
        "Ġberkecamb",
        "ah"
      ],
      [
        "b",
        "a"
      ],
      [
        "c",
        "ens"
      ],
      [
        "i",
        "o"
      ],
      [
        "l",
        "ukan"
      ],
      [
        "n",
        "g"
      ],
      [
        "p",
        "ad"
      ],
      [
        "p",
        "ons"
      ],
      [
        "t",
        "as"
      ],
      [
        "y",
        "n"
      ],
      [
        "z",
        "ol"
      ],
      [
        "Ġ",
        "E"
      ],
      [
        "Ġ",
        "end"
      ],
      [
        "an",
        "c"
      ],
      [
        "er",
        "ap"
      ],
      [
        "er",
        "ing"
      ],
      [
        "er",
        "ja"
      ],
      [
        "Ġd",
        "r"
      ],
      [
        "Ġm",
        "ulai"
      ],
      [
        "at",
        "or"
      ],
      [
        "at",
        "orium"
      ],
      [
        "Ġt",
        "ran"
      ],
      [
        "Ġs",
        "en"
      ],
      [
        "Ġs",
        "anitasi"
      ],
      [
        "al",
        "ur"
      ],
      [
        "Ġb",
        "ul"
      ],
      [
        "em",
        "i"
      ],
      [
        "Ġmen",
        "j"
      ],
      [
        "Ġk",
        "r"
      ],
      [
        "as",
        "ti"
      ],
      [
        "or",
        "atorium"
      ],
      [
        "ur",
        "uk"
      ],
      [
        "ur",
        "uh"
      ],
      [
        "um",
        "p"
      ],
      [
        "Ġin",
        "d"
      ],
      [
        "eng",
        "ah"
      ],
      [
        "on",
        "as"
      ],
      [
        "ĠP",
        "em"
      ],
      [
        "isi",
        "an"
      ],
      [
        "ul",
        "aran"
      ],
      [
        "ih",
        "at"
      ],
      [
        "ab",
        "an"
      ],
      [
        "ĠA",
        "gen"
      ],
      [
        "angan",
        "i"
      ],
      [
        "ut",
        "in"
      ],
      [
        "Ġmeng",
        "infeksi"
      ],
      [
        "Ġmeng",
        "ganggu"
      ],
      [
        "es",
        "cens"
      ],
      [
        "emb",
        "aban"
      ],
      [
        "ĠM",
        "en"
      ],
      [
        "Ġser",
        "angga"
      ],
      [
        "aw",
        "an"
      ],
      [
        "Ġpeng",
        "isian"
      ],
      [
        "Ġw",
        "arna"
      ],
      [
        "ensi",
        "tas"
      ],
      [
        "om",
        "onas"
      ],
      [
        "umb",
        "uh"
      ],
      [
        "Ġpert",
        "ama"
      ],
      [
        "Ġker",
        "entan"
      ],
      [
        "Ġsel",
        "uruh"
      ],
      [
        "Ġmengh",
        "indari"
      ],
      [
        "esi",
        "du"
      ],
      [
        "ind",
        "ung"
      ],
      [
        "ic",
        "e"
      ],
      [
        "aik",
        "nya"
      ],
      [
        "ub",
        "ah"
      ],
      [
        "Ġstr",
        "es"
      ],
      [
        "Ġstr",
        "ain"
      ],
      [
        "Ġstr",
        "uktur"
      ],
      [
        "od",
        "er"
      ],
      [
        "ed",
        "akan"
      ],
      [
        "Ġmuncul",
        "nya"
      ],
      [
        "be",
        "daan"
      ],
      [
        "kon",
        "t"
      ],
      [
        "kon",
        "idia"
      ],
      [
        "Ġal",
        "at"
      ],
      [
        "gant",
        "ung"
      ],
      [
        "Ġtetap",
        "i"
      ],
      [
        "ĠBer",
        "cak"
      ],
      [
        "Ġorgan",
        "isme"
      ],
      [
        "Ġdiken",
        "al"
      ],
      [
        "tern",
        "atif"
      ],
      [
        "Ġtekn",
        "ik"
      ],
      [
        "Ġekstr",
        "em"
      ],
      [
        "Ġmemperp",
        "arah"
      ],
      [
        "empro",
        "tan"
      ],
      [
        "Ġmasi",
        "h"
      ],
      [
        "Ġlab",
        "oratorium"
      ],
      [
        "Ġgel",
        "ap"
      ],
      [
        "trib",
        "usi"
      ],
      [
        "Ġepid",
        "emi"
      ],
      [
        "Ġkerentan",
        "an"
      ],
      [
        "g",
        "ul"
      ],
      [
        "h",
        "asil"
      ],
      [
        "l",
        "eh"
      ],
      [
        "o",
        "c"
      ],
      [
        "s",
        "p"
      ],
      [
        "t",
        "em"
      ],
      [
        "t",
        "angan"
      ],
      [
        "Ġ",
        "4"
      ],
      [
        "Ġ",
        "emb"
      ],
      [
        "an",
        "si"
      ],
      [
        "er",
        "atif"
      ],
      [
        "Ġd",
        "ef"
      ],
      [
        "Ġm",
        "udah"
      ],
      [
        "Ġm",
        "eskipun"
      ],
      [
        "Ġm",
        "onitoring"
      ],
      [
        "si",
        "fat"
      ],
      [
        "at",
        "uran"
      ],
      [
        "Ġt",
        "i"
      ],
      [
        "Ġt",
        "ampak"
      ],
      [
        "Ġt",
        "umbuh"
      ],
      [
        "Ġs",
        "ul"
      ],
      [
        "Ġs",
        "ama"
      ],
      [
        "Ġb",
        "agaimana"
      ],
      [
        "ar",
        "is"
      ],
      [
        "am",
        "inasi"
      ],
      [
        "Ġpen",
        "c"
      ],
      [
        "Ġpen",
        "elitian"
      ],
      [
        "Ġpen",
        "urunan"
      ],
      [
        "em",
        "aian"
      ],
      [
        "ap",
        "ai"
      ],
      [
        "ek",
        "erja"
      ],
      [
        "el",
        "anjut"
      ],
      [
        "ti",
        "l"
      ],
      [
        "ti",
        "ap"
      ],
      [
        "uk",
        "up"
      ],
      [
        "uk",
        "uran"
      ],
      [
        "Ġter",
        "kont"
      ],
      [
        "Ġber",
        "m"
      ],
      [
        "Ġber",
        "up"
      ],
      [
        "Ġber",
        "sifat"
      ],
      [
        "Ġtan",
        "i"
      ],
      [
        "Ġtan",
        "tangan"
      ],
      [
        "ĠB",
        "acillus"
      ],
      [
        "Ġmem",
        "ulai"
      ],
      [
        "Ġmem",
        "utus"
      ],
      [
        "is",
        "tem"
      ],
      [
        "ya",
        "wa"
      ],
      [
        "ag",
        "i"
      ],
      [
        "Ġin",
        "ter"
      ],
      [
        "Ġper",
        "bedaan"
      ],
      [
        "on",
        "g"
      ],
      [
        "ĠS",
        "istem"
      ],
      [
        "Ġr",
        "el"
      ],
      [
        "Ġr",
        "ingan"
      ],
      [
        "Ġr",
        "utin"
      ],
      [
        "ut",
        "asi"
      ],
      [
        "Ġmeng",
        "ering"
      ],
      [
        "il",
        "angan"
      ],
      [
        "Ġf",
        "isi"
      ],
      [
        "Ġc",
        "urah"
      ],
      [
        "Ġpeng",
        "aruh"
      ],
      [
        "ingkat",
        "an"
      ],
      [
        "Ġkon",
        "idia"
      ],
      [
        "Ġn",
        "on"
      ],
      [
        "Ġn",
        "ama"
      ],
      [
        "usi",
        "a"
      ],
      [
        "Ġseb",
        "aiknya"
      ],
      [
        "amb",
        "il"
      ],
      [
        "Ġgen",
        "angan"
      ],
      [
        "Ġgen",
        "eratif"
      ],
      [
        "Ġker",
        "ing"
      ],
      [
        "Ġmenyebar",
        "kan"
      ],
      [
        "Ġap",
        "akah"
      ],
      [
        "Ġpro",
        "duk"
      ],
      [
        "Ġpro",
        "te"
      ],
      [
        "agn",
        "osis"
      ],
      [
        "Ġterb",
        "ukti"
      ],
      [
        "gan",
        "isme"
      ],
      [
        "Ġmas",
        "uk"
      ],
      [
        "Ġmas",
        "alah"
      ],
      [
        "angg",
        "ap"
      ],
      [
        "imb",
        "ul"
      ],
      [
        "os",
        "p"
      ],
      [
        "aj",
        "ar"
      ],
      [
        "Ġal",
        "ternatif"
      ],
      [
        "ĠF",
        "ungisida"
      ],
      [
        "ĠTan",
        "aman"
      ],
      [
        "Ġberd",
        "asarkan"
      ],
      [
        "utus",
        "an"
      ],
      [
        "ĠO",
        "leh"
      ],
      [
        "Ġag",
        "ar"
      ],
      [
        "Ġkeh",
        "ilangan"
      ],
      [
        "Ġint",
        "ensitas"
      ],
      [
        "Ġmekan",
        "isme"
      ],
      [
        "ersih",
        "kan"
      ],
      [
        "ont",
        "oh"
      ],
      [
        "Ġmember",
        "ikan"
      ],
      [
        "ĠKes",
        "alahan"
      ],
      [
        "Ġsen",
        "yawa"
      ],
      [
        "Ġsul",
        "it"
      ],
      [
        "elanjut",
        "an"
      ],
      [
        "Ġberup",
        "a"
      ],
      [
        "Ġprote",
        "in"
      ],
      [
        "0",
        "0"
      ],
      [
        "3",
        "0"
      ],
      [
        "C",
        "R"
      ],
      [
        "a",
        "it"
      ],
      [
        "a",
        "zol"
      ],
      [
        "b",
        "er"
      ],
      [
        "b",
        "inasi"
      ],
      [
        "f",
        "ikasi"
      ],
      [
        "g",
        "er"
      ],
      [
        "g",
        "al"
      ],
      [
        "h",
        "yn"
      ],
      [
        "i",
        "z"
      ],
      [
        "i",
        "aan"
      ],
      [
        "u",
        "ai"
      ],
      [
        "Â",
        "°"
      ],
      [
        "Ġ",
        "W"
      ],
      [
        "Ġ",
        "ov"
      ],
      [
        "an",
        "am"
      ],
      [
        "Ġd",
        "osis"
      ],
      [
        "Ġt",
        "engah"
      ],
      [
        "Ġs",
        "amp"
      ],
      [
        "in",
        "a"
      ],
      [
        "in",
        "im"
      ],
      [
        "ak",
        "uan"
      ],
      [
        "Ġb",
        "ukan"
      ],
      [
        "am",
        "ati"
      ],
      [
        "ah",
        "al"
      ],
      [
        "ah",
        "kan"
      ],
      [
        "Ġpen",
        "ularan"
      ],
      [
        "Ġpen",
        "ingkatan"
      ],
      [
        "Ġk",
        "ol"
      ],
      [
        "Ġk",
        "and"
      ],
      [
        "it",
        "ik"
      ],
      [
        "eb",
        "as"
      ],
      [
        "el",
        "as"
      ],
      [
        "el",
        "ium"
      ],
      [
        "asi",
        "s"
      ],
      [
        "Ġdi",
        "h"
      ],
      [
        "Ġdi",
        "anggap"
      ],
      [
        "uk",
        "a"
      ],
      [
        "Ġter",
        "d"
      ],
      [
        "Ġber",
        "isiko"
      ],
      [
        "ung",
        "gul"
      ],
      [
        "Ġmem",
        "er"
      ],
      [
        "Ġmem",
        "antau"
      ],
      [
        "Ġj",
        "alur"
      ],
      [
        "Ġj",
        "elas"
      ],
      [
        "ik",
        "si"
      ],
      [
        "Ġh",
        "amp"
      ],
      [
        "ag",
        "on"
      ],
      [
        "on",
        "azol"
      ],
      [
        "Ġse",
        "s"
      ],
      [
        "ul",
        "arkan"
      ],
      [
        "ĠS",
        "er"
      ],
      [
        "ĠS",
        "in"
      ],
      [
        "ĠS",
        "cald"
      ],
      [
        "ĠS",
        "tr"
      ],
      [
        "ĠS",
        "eberapa"
      ],
      [
        "ĠS",
        "etelah"
      ],
      [
        "ĠS",
        "uhu"
      ],
      [
        "Ġr",
        "apat"
      ],
      [
        "Ġr",
        "esidu"
      ],
      [
        "ut",
        "an"
      ],
      [
        "da",
        "un"
      ],
      [
        "Ġmeng",
        "ak"
      ],
      [
        "Ġmeng",
        "un"
      ],
      [
        "Ġmeng",
        "etahui"
      ],
      [
        "Ġg",
        "agal"
      ],
      [
        "il",
        "ihan"
      ],
      [
        "ĠAp",
        "likasi"
      ],
      [
        "ĠM",
        "eskipun"
      ],
      [
        "Ġc",
        "ukup"
      ],
      [
        "Ġle",
        "g"
      ],
      [
        "Ġmel",
        "indung"
      ],
      [
        "ent",
        "ara"
      ],
      [
        "ok",
        "si"
      ],
      [
        "ain",
        "ase"
      ],
      [
        "ĠK",
        "on"
      ],
      [
        "om",
        "binasi"
      ],
      [
        "Ġpert",
        "ahanan"
      ],
      [
        "Ġe",
        "f"
      ],
      [
        "ĠT",
        "r"
      ],
      [
        "ĠT",
        "er"
      ],
      [
        "Ġpet",
        "ak"
      ],
      [
        "ĠD",
        "ari"
      ],
      [
        "Ġsi",
        "n"
      ],
      [
        "Ġkel",
        "embaban"
      ],
      [
        "Ġker",
        "ja"
      ],
      [
        "Ġberb",
        "asis"
      ],
      [
        "ĠIn",
        "feksi"
      ],
      [
        "ĠPeny",
        "ebaran"
      ],
      [
        "ch",
        "osp"
      ],
      [
        "ed",
        "iksi"
      ],
      [
        "ĠN",
        "itrogen"
      ],
      [
        "emp",
        "at"
      ],
      [
        "Ġberk",
        "elanjutan"
      ],
      [
        "Ġdik",
        "etahui"
      ],
      [
        "Ġmikro",
        "ba"
      ],
      [
        "Ġperl",
        "akuan"
      ],
      [
        "Ġid",
        "entifikasi"
      ],
      [
        "Ġmend",
        "eteksi"
      ],
      [
        "Ġgul",
        "a"
      ],
      [
        "Ġpend",
        "ekatan"
      ],
      [
        "Ġsed",
        "angkan"
      ],
      [
        "Ġsem",
        "entara"
      ],
      [
        "Ġpers",
        "emaian"
      ],
      [
        "Ġ2",
        "0"
      ],
      [
        "Ġres",
        "pons"
      ],
      [
        "ĠKel",
        "embapan"
      ],
      [
        "Ġman",
        "usia"
      ],
      [
        "Ġberp",
        "otensi"
      ],
      [
        "erap",
        "kan"
      ],
      [
        "Ġtran",
        "s"
      ],
      [
        "Ġemb",
        "un"
      ],
      [
        "Ġterkont",
        "aminasi"
      ],
      [
        "Ġinter",
        "aksi"
      ],
      [
        "hyn",
        "chosp"
      ],
      [
        "agon",
        "is"
      ],
      [
        "Ġmelindung",
        "i"
      ],
      [
        "hynchosp",
        "orium"
      ],
      [
        "1",
        "5"
      ],
      [
        "A",
        "M"
      ],
      [
        "M",
        "R"
      ],
      [
        "X",
        "ant"
      ],
      [
        "b",
        "angkan"
      ],
      [
        "f",
        "it"
      ],
      [
        "g",
        "r"
      ],
      [
        "h",
        "omonas"
      ],
      [
        "k",
        "ulasi"
      ],
      [
        "k",
        "ecamb"
      ],
      [
        "l",
        "as"
      ],
      [
        "o",
        "w"
      ],
      [
        "p",
        "un"
      ],
      [
        "r",
        "kulasi"
      ],
      [
        "s",
        "ed"
      ],
      [
        "u",
        "ar"
      ],
      [
        "z",
        "on"
      ],
      [
        "z",
        "im"
      ],
      [
        "Ġ",
        "6"
      ],
      [
        "Ġ",
        "ukuran"
      ],
      [
        "Ġ",
        "Xant"
      ],
      [
        "an",
        "op"
      ],
      [
        "en",
        "ih"
      ],
      [
        "Ġp",
        "eka"
      ],
      [
        "Ġd",
        "un"
      ],
      [
        "Ġd",
        "ua"
      ],
      [
        "Ġm",
        "ak"
      ],
      [
        "Ġm",
        "au"
      ],
      [
        "Ġm",
        "il"
      ],
      [
        "Ġm",
        "akan"
      ],
      [
        "Ġm",
        "ir"
      ],
      [
        "Ġm",
        "isalnya"
      ],
      [
        "Ġm",
        "ed"
      ],
      [
        "si",
        "a"
      ],
      [
        "at",
        "at"
      ],
      [
        "Ġt",
        "itik"
      ],
      [
        "Ġs",
        "al"
      ],
      [
        "Ġs",
        "et"
      ],
      [
        "in",
        "ya"
      ],
      [
        "ak",
        "s"
      ],
      [
        "ak",
        "in"
      ],
      [
        "Ġb",
        "ak"
      ],
      [
        "Ġb",
        "awah"
      ],
      [
        "Ġb",
        "ekerja"
      ],
      [
        "Ġb",
        "ebas"
      ],
      [
        "ar",
        "at"
      ],
      [
        "am",
        "in"
      ],
      [
        "ad",
        "aan"
      ],
      [
        "Ġmen",
        "angani"
      ],
      [
        "Ġk",
        "u"
      ],
      [
        "Ġk",
        "ali"
      ],
      [
        "Ġk",
        "enc"
      ],
      [
        "Ġk",
        "entang"
      ],
      [
        "Ġk",
        "anop"
      ],
      [
        "it",
        "is"
      ],
      [
        "Ġl",
        "uka"
      ],
      [
        "ing",
        "atan"
      ],
      [
        "ti",
        "b"
      ],
      [
        "ti",
        "lah"
      ],
      [
        "Ġdi",
        "amati"
      ],
      [
        "or",
        "f"
      ],
      [
        "Ġter",
        "c"
      ],
      [
        "ung",
        "si"
      ],
      [
        "ur",
        "at"
      ],
      [
        "et",
        "er"
      ],
      [
        "ĠB",
        "enih"
      ],
      [
        "Ġj",
        "ingga"
      ],
      [
        "Ġj",
        "erami"
      ],
      [
        "Ġj",
        "ajar"
      ],
      [
        "gen",
        "ang"
      ],
      [
        "is",
        "an"
      ],
      [
        "um",
        "ulasi"
      ],
      [
        "Ġh",
        "ama"
      ],
      [
        "ag",
        "aman"
      ],
      [
        "Ġper",
        "kecamb"
      ],
      [
        "Ġper",
        "ingatan"
      ],
      [
        "ĠP",
        "adi"
      ],
      [
        "ol",
        "usi"
      ],
      [
        "ul",
        "ensi"
      ],
      [
        "ĠS",
        "il"
      ],
      [
        "Ġr",
        "as"
      ],
      [
        "ĠA",
        "k"
      ],
      [
        "ut",
        "uh"
      ],
      [
        "Ġmeng",
        "abaikan"
      ],
      [
        "emb",
        "angan"
      ],
      [
        "Ġf",
        "l"
      ],
      [
        "ir",
        "us"
      ],
      [
        "ot",
        "asi"
      ],
      [
        "Ġc",
        "oc"
      ],
      [
        "dal",
        "ikan"
      ],
      [
        "ent",
        "ase"
      ],
      [
        "Ġkon",
        "s"
      ],
      [
        "ĠK",
        "apan"
      ],
      [
        "Ġad",
        "anya"
      ],
      [
        "Ġbi",
        "ologis"
      ],
      [
        "ĠPen",
        "elitian"
      ],
      [
        "ĠT",
        "ekn"
      ],
      [
        "Ġvir",
        "ulen"
      ],
      [
        "Ġvir",
        "ulensi"
      ],
      [
        "Ġsi",
        "rkulasi"
      ],
      [
        "Ġak",
        "ar"
      ],
      [
        "Ġak",
        "urat"
      ],
      [
        "Ġak",
        "umulasi"
      ],
      [
        "ĠR",
        "F"
      ],
      [
        "ĠR",
        "hynchosporium"
      ],
      [
        "ind",
        "ing"
      ],
      [
        "Ġmenc",
        "apai"
      ],
      [
        "ĠC",
        "ontoh"
      ],
      [
        "Ġmer",
        "eka"
      ],
      [
        "ĠPeng",
        "amatan"
      ],
      [
        "Ġdit",
        "ularkan"
      ],
      [
        "ĠBacteri",
        "cal"
      ],
      [
        "Ġlap",
        "isan"
      ],
      [
        "Ġterb",
        "aik"
      ],
      [
        "Ġum",
        "ur"
      ],
      [
        "Ġpertan",
        "aman"
      ],
      [
        "tan",
        "ur"
      ],
      [
        "Ġmas",
        "a"
      ],
      [
        "Ġkek",
        "eringan"
      ],
      [
        "Ġsebelum",
        "nya"
      ],
      [
        "Ġterl",
        "ihat"
      ],
      [
        "ĠV",
        "irus"
      ],
      [
        "omp",
        "ok"
      ],
      [
        "Ġefektivitas",
        "nya"
      ],
      [
        "ĠF",
        "aktor"
      ],
      [
        "Ġbah",
        "kan"
      ],
      [
        "Ġters",
        "erang"
      ],
      [
        "Ġorgan",
        "ik"
      ],
      [
        "Ġdiken",
        "dalikan"
      ],
      [
        "ĠO",
        "r"
      ],
      [
        "eks",
        "ual"
      ],
      [
        "Ġpers",
        "entase"
      ],
      [
        "Ġst",
        "abil"
      ],
      [
        "Ġmemperb",
        "esar"
      ],
      [
        "ĠSe",
        "cara"
      ],
      [
        "Ġmis",
        "elium"
      ],
      [
        "Ġmengat",
        "asi"
      ],
      [
        "Ġketer",
        "gantungan"
      ],
      [
        "Ġsk",
        "ala"
      ],
      [
        "Ġpenyul",
        "uhan"
      ],
      [
        "Ġdim",
        "ulai"
      ],
      [
        "Ġbij",
        "i"
      ],
      [
        "io",
        "tik"
      ],
      [
        "pad",
        "u"
      ],
      [
        "Ġdr",
        "ainase"
      ],
      [
        "Ġdef",
        "isiensi"
      ],
      [
        "Ġti",
        "ga"
      ],
      [
        "Ġfisi",
        "ologis"
      ],
      [
        "Ġkand",
        "ungan"
      ],
      [
        "Ġmemer",
        "lukan"
      ],
      [
        "Ġses",
        "uai"
      ],
      [
        "ĠSin",
        "tanur"
      ],
      [
        "Ġleg",
        "ow"
      ],
      [
        "oksi",
        "n"
      ],
      [
        "AM",
        "P"
      ],
      [
        "sed",
        "iaan"
      ],
      [
        "zon",
        "asi"
      ],
      [
        "ĠXant",
        "homonas"
      ],
      [
        "Ġdun",
        "ia"
      ],
      [
        "Ġmau",
        "pun"
      ],
      [
        "Ġmir",
        "ip"
      ],
      [
        "Ġmed",
        "ia"
      ],
      [
        "Ġkenc",
        "ang"
      ],
      [
        "Ġkanop",
        "i"
      ],
      [
        "Ġperkecamb",
        "ahan"
      ],
      [
        "utuh",
        "kan"
      ],
      [
        "Ġcoc",
        "ok"
      ],
      [
        "Ġlegow",
        "o"
      ],
      [
        "b",
        "in"
      ],
      [
        "c",
        "i"
      ],
      [
        "d",
        "i"
      ],
      [
        "f",
        "aktor"
      ],
      [
        "h",
        "ati"
      ],
      [
        "j",
        "ad"
      ],
      [
        "m",
        "bangkan"
      ],
      [
        "n",
        "e"
      ],
      [
        "n",
        "ama"
      ],
      [
        "r",
        "igasi"
      ],
      [
        "r",
        "ekomendasi"
      ],
      [
        "t",
        "arget"
      ],
      [
        "u",
        "gi"
      ],
      [
        "v",
        "ersi"
      ],
      [
        "w",
        "as"
      ],
      [
        "z",
        "eb"
      ],
      [
        "Ġ",
        "7"
      ],
      [
        "Ġ",
        "amb"
      ],
      [
        "Ġ",
        "aman"
      ],
      [
        "Ġ",
        "abu"
      ],
      [
        "Ġ",
        "zonasi"
      ],
      [
        "er",
        "apan"
      ],
      [
        "Ġp",
        "H"
      ],
      [
        "Ġd",
        "inding"
      ],
      [
        "Ġm",
        "oder"
      ],
      [
        "Ġm",
        "orf"
      ],
      [
        "at",
        "us"
      ],
      [
        "al",
        "an"
      ],
      [
        "al",
        "isi"
      ],
      [
        "Ġb",
        "us"
      ],
      [
        "un",
        "uh"
      ],
      [
        "ar",
        "b"
      ],
      [
        "ar",
        "ak"
      ],
      [
        "ah",
        "aya"
      ],
      [
        "ad",
        "atan"
      ],
      [
        "em",
        "ari"
      ],
      [
        "em",
        "ahan"
      ],
      [
        "ap",
        "likasi"
      ],
      [
        "ap",
        "aran"
      ],
      [
        "Ġk",
        "en"
      ],
      [
        "Ġk",
        "as"
      ],
      [
        "Ġk",
        "emb"
      ],
      [
        "Ġl",
        "eb"
      ],
      [
        "Ġl",
        "uar"
      ],
      [
        "as",
        "ar"
      ],
      [
        "ek",
        "ro"
      ],
      [
        "ek",
        "tr"
      ],
      [
        "ek",
        "ay"
      ],
      [
        "ti",
        "s"
      ],
      [
        "Ġpeny",
        "emprotan"
      ],
      [
        "Ġdi",
        "kembang"
      ],
      [
        "Ġdi",
        "rekomendasi"
      ],
      [
        "Ġdi",
        "aplikasi"
      ],
      [
        "or",
        "ganisme"
      ],
      [
        "Ġter",
        "gantung"
      ],
      [
        "Ġter",
        "genang"
      ],
      [
        "Ġber",
        "ada"
      ],
      [
        "Ġber",
        "adaptasi"
      ],
      [
        "ung",
        "aan"
      ],
      [
        "Ġpad",
        "ahal"
      ],
      [
        "ur",
        "kan"
      ],
      [
        "ai",
        "l"
      ],
      [
        "Ġmem",
        "anjang"
      ],
      [
        "gen",
        "ik"
      ],
      [
        "ik",
        "it"
      ],
      [
        "ik",
        "nya"
      ],
      [
        "ik",
        "ator"
      ],
      [
        "ari",
        "a"
      ],
      [
        "Ġse",
        "tiap"
      ],
      [
        "ĠP",
        "r"
      ],
      [
        "ĠP",
        "CR"
      ],
      [
        "ol",
        "er"
      ],
      [
        "ul",
        "a"
      ],
      [
        "Ġr",
        "ekomendasi"
      ],
      [
        "Ġr",
        "ump"
      ],
      [
        "ĠA",
        "sia"
      ],
      [
        "Ġda",
        "ur"
      ],
      [
        "Ġg",
        "and"
      ],
      [
        "ĠAp",
        "pressorium"
      ],
      [
        "ir",
        "an"
      ],
      [
        "Ġc",
        "AMP"
      ],
      [
        "Ġke",
        "camb"
      ],
      [
        "Ġmemb",
        "edakan"
      ],
      [
        "Ġmemb",
        "unuh"
      ],
      [
        "Ġpeng",
        "aturan"
      ],
      [
        "Ġpeng",
        "embangan"
      ],
      [
[...]
